#version: 0.2
e n
e s
Ġ a
Ġ d
e r
Ġ t
Ġ c
Ġ p
i n
Ġ s
o n
a r
Ġ l
Ġd e
o r
o s
a s
a n
Ġ m
Ġ Ġ
r e
Ġ Ð
u n
Ġ e
t i
c i
a l
u e
Ð ¾
Ġt h
t e
Ġ y
i s
a d
Ġ f
Ġ o
Ð µ
Ġl a
o m
Ġ en
Ġ un
Ñ Ĥ
i c
Ġ h
Ð °
Ġth e
Ġ q
Ġ b
Ð ¸
r o
i t
Ã ³
Ġ in
a t
l e
en t
Ġ es
Ġa n
Ġ n
Ġq ue
Ġ w
i d
Ġc on
r a
Ð¾ Ð
Ñ ģ
u s
in g
Ð ½
Ã Ń
Ġe l
Ġt o
Ñ Ģ
Ġ v
Ã³ n
t a
ĠĠ ĠĠ
o u
i m
o l
Ã ¡
č Ċ
Ġan d
Ġs e
Ġ g
Ġ re
e d
a m
e l
e c
Ġc om
Ġo f
i l
Ã ©
Ġp ar
Ġ E
ci Ã³n
Ġ A
i g
r es
c h
ti on
u l
Ġa l
Ġp ro
Ġun a
t r
Ð »
u r
Ġ S
d o
t o
e m
t er
a c
i r
a b
Ġ T
Ñ ĥ
Ġl os
e t
à ¸
Ġpar a
er s
Ġs u
Ġ C
Ġ I
Ġ P
d e
Ð° Ð
Ġy ou
Ñ ı
Ġf or
u m
Ñ ĭ
i z
p l
i en
Ġ is
u t
Ġ L
Ġe x
i f
Ñ Į
o d
a y
v e
Ġ -
Ġ 1
a ciÃ³n
Ġn o
c e
Ðµ Ð
ad o
q u
i b
Ġ "
ci on
ti c
Ġde l
Ã¡ s
Ġa s
Ġ (
ÃŃ a
i a
t h
l o
Ġl as
Ġ im
ĠÐ ¿
Ġ M
ic a
Ñ ĩ
Ð¸ Ð
i v
en te
Ġd es
Ġ D
en d
is t
Ġ us
Ġp ue
an t
i ent
m a
p or
u d
Ġ Ñģ
ĠÐ ²
Ġ res
Ġc an
Ġl o
l a
p er
Ġth at
Ġb e
i o
Ġ or
Ġes t
ĠÐ ¸
Ġp or
ti v
id ad
h e
Ġ r
a g
Ġ on
Ã º
Ñģ ÑĤ
Ã ±
Ġ B
i e
Ġ 2
ad a
Ġs o
Ġcom p
Ġm e
Ġp er
i er
l y
Ġa c
Ġp r
a te
Ġ it
ĠE s
Ð º
it h
ĠÐ ½
Ġc u
v er
Ġ H
Ġ j
Ġs er
u c
Ġ F
ci a
k e
o w
Ðµ Ð½
Ġcom o
a p
Ð ²
Ġw h
t u
Ġm Ã¡s
g o
Ġt e
Ġ R
i on
ĠĠĠĠ ĠĠĠĠ
f or
Ġcon s
i p
Ġw ith
Ġ G
Ð¾Ð ²
a j
por t
Ġq u
o c
p e
ti l
Ġh a
Ġa re
Ġ =
i ci
c es
en er
r an
es t
Ġl e
er e
Ġ u
al es
a tion
Ġa r
o t
ĠÐ ¾
ĠÐ º
an te
Ñ ħ
s e
Ġp re
Ġp l
Ð ¼
cion es
g u
Ġa p
ec t
- -
m ent
Ġc re
m o
ic h
Ðµ ÑĤ
l d
an d
Ġn e
Ġ W
o p
Ġ N
ar i
an do
o g
Ġ 3
c l
g un
ÑĤ Ð¾
Ġd is
Ð ´
Ġm u
i te
s t
q ue
Ġo b
Ġa d
Ġyou r
ra m
Ġ U
Ġc h
Ġ k
in e
Ñ İ
Ġf r
en s
Ġp ers
c r
Ġa b
ï ¼
ĠÐ ¼
Ðµ ÑĢ
Ġim port
0 0
ig h
ÑĤ ÑĮ
b re
id e
Ġa m
er a
Ġs on
or es
Ġd if
ĠT he
Ð¾Ð »
Ġm an
Ġpue d
ĠE n
Ġf un
Ð° Ð½
Ġs t
ä ¸
l es
p le
Ġ O
g e
Ġpers on
ĠI n
â Ģ
Ġc l
am b
ĠL a
Ð ¿
Ġt r
ĠÐ ´
c u
Ġin ter
il l
' s
ou ld
` `
Ð½ Ð¾
Ġe m
Ġpue de
u g
Ð¾Ð ¼
om e
Ġm a
i Ã³n
Ġcon t
Ã© n
ar e
ĠÐ¿ ÑĢ
Ġ Â
t s
er o
id o
Ġs i
b le
Ġ J
ad os
Ġs ol
Ã© s
ab le
Ġt ra
à ¹
Ġc o
Ġ Ñ
Ġw e
Ġp os
c on
til iz
tion s
Ġen t
al l
Ġt u
en cia
am e
Ġ ÑĤ
it y
ĠT h
Ġd i
Ð½ Ñĭ
f er
Ġd at
for m
Ġ 4
id a
p o
Ġs ig
Ġa t
z a
c ul
Ð¾Ð ³
ient o
Ġ V
m ente
d ad
d a
Ñ Ī
Ġ *
f ic
or e
Ġ 5
ç ļ
Ġre c
çļ Ħ
Ġb y
t os
ï¼ Į
l l
Ð°Ð º
Ġu tiliz
Ġo p
as e
a v
ou r
Ġc ar
Ð ·
ã Ģ
Ġt ien
ec es
ð Ł
d uc
Ġc al
Ġs h
Ġh as
p a
Ã¡ n
Ġ ÑĢ
Ðµ Ð»
Ġ i
amb i
al iz
Ġha ve
Ġp od
ul t
en ti
ĠE l
Ġm od
Ġ z
Ġh ab
as s
b er
u re
u es
Ġc ol
Ġin cl
igh t
te m
Ġm ed
y s
Ð¾Ð ´
i es
in a
Ġc or
Ġres p
Ð¸ Ñı
Ġe j
te d
Ġ ro
ĠÐ ±
s o
un d
n e
Ġe le
ar d
us t
Ġfr om
" ,
Ġh ac
Ġpro g
Ġ ðŁ
Ġv er
Ð ³
Ð¸ ÑĤ
ec h
Ġe v
Ñ Ĩ
f ici
Ġm o
Ð° Ð»
p res
or d
Ġm ay
in t
in d
Ð ±
g a
Ġv ari
ĠU n
es s
Ġes ta
Ġ Ñĩ
re c
th er
i le
el l
m e
a ch
ic o
ul ar
em pl
k s
ÃŃ s
Ġs us
u b
ar a
tic a
c o
ag e
ent es
ĠÐ½ Ð°
i ti
Ġso bre
p os
ÐµÐ ¼
u er
Ġ Y
al ly
Ġg ener
o ci
Ġd o
Ð¾Ð ¹
Ġh e
Ġa y
ol og
Ġn eces
pe ci
Ġno t
ou t
Ġmu ch
Ġun d
Ð¾ ÑĢ
Ġob j
t en
Ñģ Ñı
Ġme j
Ġc Ã³
ĠÐ ·
Ġent re
Ġp e
ad or
Ġal gun
Ġay ud
Ġw or
Ġde b
Ð¸Ð ¼
Ð¸ Ðµ
r as
Ð¾Ð ¶
Ġth is
ad as
en ci
Ġfor m
-- --
Ġs al
Ġv al
r end
ib le
Ġg o
ĠA l
p s
Ġpued en
y th
Ãº n
ambi Ã©n
k ing
Ġh ay
at er
am ente
Ñ ī
ar io
Ġt i
ac t
Ġ Ñĥ
Ġp a
ÃŃ as
Ð°Ð ¼
Ġp as
idad es
Ð° ÑĤÑĮ
d i
Ã± o
Ġej empl
ent a
Ġre g
c a
Ġ {
tr uc
Ġs im
Ð» Ð¸
Ġ if
ĠĠĠĠ Ġ
m in
ÐµÐ ´
Ġ <
Ġc ap
f t
n o
Ñģ Ðº
Ġs in
Ġin v
ra c
Ġmej or
tr os
Ġg r
g en
Ġdif er
t es
Ġ #
Ð° ÑĤ
g r
i os
Ġt em
Ġthe ir
is ta
ĠÂ ¿
lo w
ãĢ Ĥ
Ġus e
ä º
d u
Ġp res
ĠTh is
Ġc as
Ġprog ram
Ġh el
t ro
Ġm ore
is te
Ġw as
Ġ Ã
p ar
p end
Ġe f
Ġin te
Ġ K
Ġcomp le
a z
Ġ 6
Ð¾Ð ±
Ð¾Ð ½
Ġl i
Ġex per
ran s
d os
u y
v el
Ġp o
ä »
`` `
Ġimport ante
u al
Ġm is
) ;
Ð¾ ÑĤ
im e
tiv o
Ġs ome
å ı
ant es
an a
Ð» Ñı
p ro
Ġper o
Ġin d
os t
Ġex pl
n a
ien te
an ce
ĠÑ į
Ġf e
on e
ti ve
er g
7 7
Ġpro ces
Ġwh ich
Ġhac er
Ð°Ð ²
ÑģÑĤ Ð²
u ra
Ġpro v
Ġp ol
Ġv e
en ce
Ġ âĢ
Ġpl an
qu ÃŃ
Ġm i
ac k
on s
x t
Ġg ran
ent o
ĠA d
a k
Ġ ```
aj e
Ġ }
Ġt er
) .
Ġt ener
Ġh um
t ar
Ġb as
Ġc r
Ð°Ð ·
es e
t as
a ci
yth on
ue v
ĠP or
Ã± os
Ġde ci
Ġejempl o
re d
ce p
Ð¸ Ð½
ic e
Ġc ada
ĠR e
Ġl ib
ac e
on g
Ġm en
Ġt rans
ue go
Ġa v
Ġt en
Ġb u
Ġo ther
Ġb ut
tu ra
id er
Ġsig n
ci p
Ġmod el
i al
j o
Ġh er
d es
ĠÐ½ Ðµ
ed ad
Ġf in
c ar
ro l
ys tem
at a
ĠI t
Ġsu ch
Ð¾Ð» ÑĮ
Ð ¶
ien do
Ġso ci
Ġw ill
iv ers
Ġfor ma
Ġti em
Ġc a
Ð¾ Ñģ
w e
en a
it a
p re
ĠA n
Ġ ra
ig o
Ġin form
l ic
Ġin s
c tion
p h
Ġl l
ÐµÐ º
cr ip
Ġde f
en e
Ġhel p
Ġp at
Ġ [
Ġa ut
ä ½
it o
an o
Ã© r
Ġre la
pl ica
ÑĤÐ¾ ÑĢ
Ġm ar
Ġes te
Ġ er
or y
Ġre qu
ĠD e
Ġthe y
d er
Ġdat os
Ġt ambiÃ©n
Ġ Ã©
b aj
it ar
Ġtiem po
Ã ¤
ĠS e
Ġn um
i ve
Ġayud ar
ic al
ig n
Ġdat a
ĠS i
Ġam b
ÐµÐ ¹
Ã ¼
Ġl es
Ġin f
h er
Ġd er
Ġal l
Ġper m
Ġpr in
t ra
Ġm in
Ġc am
Ð¸Ð ²
b r
p ec
Ġ +
Ġe qu
Ġ1 0
p r
t ing
Ġ 8
le c
Ġpr im
Ð¾Ð³ Ð¾
Â ¿
Ġal so
tic as
Ġap rend
ta in
ÑĢ Ñĥ
. .
Ġd on
Ġv ida
Ð¸Ð º
c al
Ġh ist
ar y
Ġb o
if ic
Ġpod r
Ġa f
d en
um ent
cr ib
u z
tiv a
Ġ 0
ic os
Ġd os
n ow
Ġw ould
m os
Ġpro duc
Ġli ke
/ /
j a
Ġe t
Ð ¹
b ar
Ġpued es
æ Ī
Ġtra baj
Ġest Ã¡
Ġne w
æ ľ
Ġcom m
Ġd ie
at o
o k
) ,
Ġpro ble
p i
t ur
Ġy a
ã ģ
an s
ĠÐ¾ Ð±
h at
Ġres ult
l ar
or a
Ġc os
u p
Ġ '
l ig
Ġt us
at ur
Ġu p
Ġg ra
Ġus ed
Ġan y
ic as
t y
Ã ¨
Ġdes ar
ĠC on
Ġne ed
å ħ
c k
f r
ĠĠ Ġ
Ġd ur
ar n
Ġwe b
on es
ti r
Ġ2 0
ĠA s
Ð¸ Ñĩ
or s
ĠÐ °
c re
l as
p en
al mente
us e
Ġser v
n olog
Ġex am
Ġab out
Ġv is
Ð¸ ÑĤÑĮ
Ġmu y
ion es
g an
ar t
Ġcons ider
le v
Ð¸ Ð¸
_ _
Ġen erg
Ġ 7
ĠÐ »
Ġo tros
c om
tr ar
i x
ĠÐ ³
Ġl en
Ġtien e
Ġm as
Ġo ut
Ġit s
z ar
tic o
Ġt a
g ar
i or
m s
Ġt om
Ġcon oci
Ġpre gun
Ġth ere
an g
an to
un do
il idad
ac ter
à¸ ²
Ġc ould
ĠÐ² Ñĭ
Ð¸Ð ·
Ġrec om
L a
w are
or ia
Ð° Ñģ
Ġs ystem
Ġ id
in o
es ti
Ġb et
for ma
Ð¾Ð ·
Ġt ime
Ġ ke
Ð° ÑĢ
Ġpro f
at ing
Ġk now
l os
v en
Ġus ing
tiv os
ation s
al s
Ġ1 9
iste ma
Ġd ist
Ġdif fer
Ð¾ ÑģÑĤ
em os
Ãº m
d igo
i re
Ġ ide
er os
Ġman era
m as
w n
ol a
Ġhas ta
Ġt ip
Ð¸ Ñħ
ĠN o
ĠL os
ĠÐ¾ ÑĤ
Ġprin cip
Ġcon f
am iento
Ġs peci
Ð¸Ð ¹
r y
t on
Ġ Ñı
ĠY ou
Ġh ow
at es
Ġthe m
Ġse g
ÐµÐ½ Ð¸Ñı
Ġp op
ue l
Ãº s
Ġcre ar
" .
( )
Ġd a
ci o
Ġf il
Ġl ar
Ñĥ Ñĩ
c tr
Ġperson as
d as
tr as
p on
b o
b ol
er v
Ġsu b
Ġ Ã¡
Ġa u
Ġal g
ter n
p ut
u ro
Ġo ver
Ġon e
Ġt ec
Ġm undo
o y
am os
Ġl ÃŃ
Ġc ur
ĠA r
Ġcu al
Ã ł
Q u
à¸ Ļ
k o
ĠP ython
ug ar
ĠÑĩ ÑĤÐ¾
g et
å ¤
Ġb r
ient es
Ġs istema
is h
pl ic
f ul
Ġn i
' t
å Ĭ
ĠcÃ³ digo
if ica
Ġb us
i el
Ġma ke
Ġin to
Ġele ment
Ð¾Ð º
Ġinform aciÃ³n
Ġcom un
ate d
it s
Ġdifer entes
Ñ Ħ
ent s
ch e
Ġt y
Ġn Ãºm
t or
ç Ķ
ÃŃ cul
ĠÐ µ
r os
Ġp ot
ad ores
Ġes peci
* *
E l
Ð¸ Ñģ
iz e
Ġdi rec
æ ĺ
a ciones
è ¿
Ġ x
Ġm at
Ġac tu
Ġw ay
al e
em Ã¡s
ĠcÃ³ mo
crip t
aliz ar
b l
è ¯
ĠP ro
Ġco de
Ġ |
Ġs ta
un g
le d
ug h
Ġcu enta
Ġm y
pa Ã±
Ġexper ien
ol u
ĠÐ¸ Ð·
Ġs tr
Ġpro te
u est
Ġre al
l u
å ®
Ġin t
Ġn uev
Ñİ ÑĤ
t re
en do
Ġre f
e p
Ð¾ ÑĤÐ¾ÑĢ
il d
å Ī
Ð°Ð ´
i as
Ġm et
Ġfun ciÃ³n
Ð½Ð¾ ÑģÑĤ
Ġincl uy
Ðµ Ñģ
Ġfun ction
ĠC h
cion al
Ġobj e
Ġs a
ra te
ÃŃ n
b e
ĠC om
qu es
enci as
2 0
Ġg u
ĠH ow
à¸² à¸
x im
Ġ Ãº
in u
a in
Ġe in
om bre
Ġse gu
( "
Ġc er
Ð½ Ð°
gu a
å Ĳ
1 9
Ġf o
Ġf act
Ġsu per
Ġm on
ic k
Ã §
Ġ 9
) :
Ñ ĸ
Ġde pend
Ġalgun os
ec u
f f
or m
ĠD es
c ed
ci as
ab les
Ġsu p
Ġ $
Ġd ar
Ġm ater
ing s
ari os
c ur
Ð½Ñĭ Ñħ
Ġb ien
Ġsol o
Ġen tr
ĠI f
Ġar ti
Ġl im
i ar
en o
re e
Ġes to
ĠS in
Ġin st
tr ib
g ra
Ġen con
Ġem bar
---- ----
im ent
Ġmay or
Ã ¶
Ġn atur
Ġexam ple
Ġp un
ul ti
Ġsig u
it u
v ers
Ġh is
Ġto do
el y
iv id
i Ã³
z e
ÃŃ fic
Ġim p
Ġperson a
å ľ
ĠEs to
Ġimport ant
g er
j e
ar se
å Ĵ
Ġde m
ĠÐ¼ Ð¾Ð¶
Ġcont rol
Ã¡ l
Ġo per
t al
Ġlen gu
v es
ad e
tu re
Ġs ab
Ð°Ð ¶
vel op
b a
Ġv ol
Ġve z
c er
e ver
Ġ Z
Ġ \
Ġc ent
Ġp el
j ect
ĠÐ Ĵ
Ġun o
m iento
Ġse a
Ġus u
Ġz u
Ġs p
Ġwor k
Ġembar go
Ġl uz
a il
w o
ro ll
ä¸ Ģ
os e
Ġm us
ĠAd emÃ¡s
an ge
Ġad d
Ġth ese
o b
in s
ÃŃ an
æĺ ¯
åĴ Į
Ġg et
Ġsh ould
Ġ um
ä ¹
as t
Ġwh en
ĠĠĠĠĠĠĠĠ ĠĠĠĠ
Ġf ol
at u
im iento
ãĢ ģ
Ð¸ ÑĢ
Ġpop ular
w s
Ġcu ando
Ġin g
Ġqu Ã©
Ġle arn
Ġex ist
Ġest os
Ð½Ñĭ Ðµ
i tion
ou g
Ġtien es
Ġpl ay
h t
ar s
Ð¸ Ð»
Ġqu ier
Ġe con
à¹ Ī
we en
i ed
ĠE x
ĠÐº Ð°Ðº
Ġl ugar
Ġtec nolog
Ġe ach
Ġpr int
Ġwh at
ti m
ci l
ĠA m
i an
Ġb ec
end er
ient os
i ciÃ³n
I n
ĠÐº Ð¾ÑĤÐ¾ÑĢ
ÐµÐ» ÑĮ
Ġproces s
Ġbet ween
Ð¾Ð ¿
ec to
Ġqu es
av a
æ ĸ
Ġto dos
Ġal go
tur n
Ġa Ã±os
in k
qu ier
T he
è ®
Ġf ue
Ġpro por
v ent
ces s
Ð°Ð ¹
Ġwh o
Ġac tiv
Ñ ĳ
e x
Ġin forma
Ġl ist
Ġus ar
fici al
Ġ `
ĠL e
h r
o us
Ð° ÐµÑĤ
Ġan im
ur s
Ġc e
Ġcons t
ft ware
Ġdiffer ent
u de
Ġc i
id os
am ent
Ñĥ ÑĤ
ag es
ĠÐ´ Ð»Ñı
am il
Ġdes de
ĠÂ ¡
Ġdis e
à¹ Ģ
Ġhum an
Ġs ur
à¸ Ń
ir st
ient ras
ĠÐ± Ñĭ
00 0
a x
ti dad
ĠF or
ĠÑĢ Ð°Ð·
ä» ¥
Ñģ Ð¿
Ġg e
Ġas ÃŃ
ĠÑĤ Ð°Ðº
Ġ* *
g os
an n
Ðµ ÑģÐº
ro ugh
Ġh igh
ÐµÐ½ Ð¸Ðµ
ar ch
Ġl et
Ð½ Ð¾Ð¹
ram ient
Ġcal cul
Ġgener al
Ġp h
Ġde ter
Ġn a
Ġutiliz a
Ġg ro
Ġh or
il idades
ĠP ara
w or
Ġ X
Ġth an
Ġv ers
Ġsign ifica
E n
Ġcom b
Ġpro p
Ġp ub
Ġmo v
Ġ il
ĠW h
iti es
ç »
Ġher ramient
Ġde velop
pl es
iv o
ect os
om a
it os
Ġele ctr
an cia
Ġse t
Ġre turn
il ar
ĠÑģ Ð²
g es
Ġman y
Ġp al
Ð°Ð» ÑĮ
Ġmejor ar
Ġll am
g re
z o
i k
Ġcon cep
à¹Ģ à¸
Ġm Ã©
Ġprogram aciÃ³n
c an
Ġ //
Ġm ulti
Ġt anto
Ġp es
Ã³ g
ÐµÐ ³
ues ta
cion ar
ĠÐ¿ Ð¾
Ġest ud
op le
] [
l ti
tic os
s a
u ch
Ġc ul
Ġcre ate
Ġsol u
Ġf ind
Ġg ame
ĠÑ Ħ
Ġalg or
Ġl an
Ġcor rec
ĠĠĠĠ ĠĠ
Ġm em
is e
Ġh an
ues to
Ġdur ante
Ã £
Ġs enti
Ġv ide
Ġcomp r
Ġt ech
Ġt wo
ĠEs ta
Ġwh ere
Ġl ista
res s
Ñĭ Ðµ
= "
Ġo tro
Ġb l
ĠHow ever
Ġpar te
Ġa quÃŃ
Ġun ivers
Ġaprend er
t and
v a
Ġd oc
Ġm ag
Ġest Ã¡n
Ġth en
Ñĥ Ñİ
à¹ ī
ĠÐ Ł
ĠÑģ ÑĤ
Ġcon di
Ġpue do
Ġhist oria
e g
el f
Ġso ftware
s ist
Ġes pec
Ġwh ile
cu ent
Ġn os
r it
Ġpod er
Ġd ÃŃa
in es
Ġutiliz ar
Ġdesar roll
trib u
Ã³ m
77 77
ĠlÃŃ ne
ĠnÃºm ero
ar te
Ġen s
Ð° ÑĨ
il ity
ci r
Ġar ch
id as
Ġis t
Ġencon trar
Ġt as
Ġm ate
Ġm ientras
f ica
Ġb lo
it al
ud ad
er n
Ġtr ad
Ġmuch os
E s
Ġth rough
Ġf uer
Ġre pres
tic al
Ġincl ud
Ð° ÑģÑĤ
Ġlengu aje
Ġc ambi
us tr
Ã¡ c
Ġcan tidad
Ġor gan
Ġprov ide
Ġp oc
our ce
Ġtip o
Ġf u
ow er
ic s
Ð°Ð ¿
Ġpos s
Ġresp on
Ġpro y
Ġtien en
c el
Ð°Ð ±
ĠEs te
ĠÑį ÑĤÐ¾
aci dad
Ġb ar
Ġalgun as
åı ¯
p u
ĠA I
Ġcar acter
Ġen v
ĠÑģ Ð»
Ġpe ople
Ġdon de
Ġa gua
Ġs k
Ġf amil
ĠÐ ¶
Ġen cuent
ul a
Ġpre ci
ic es
' ,
Ġc ir
Ġm ost
ta mente
Ġmis mo
Ã£ o
Ġs te
Ð¾Ð² Ð°Ð½
Ð½Ñĭ Ð¼
Ð¸Ñĩ ÐµÑģÐº
å Ľ
ĥ ½
Ġm om
ion s
Ð° Ñı
Ã© c
Ġdeb e
Ġid enti
em ent
ter s
Ġbe en
Ġtra v
æĪ ĳ
Ðµ ÑģÑĤÐ²
Ġind ivid
Å Ĥ
Ġdef in
on a
ro und
ĠG o
Ġobj ect
Ġs itu
Ġpos ible
Ã³ r
ers tand
Ġus o
Ġh and
ÐµÐ ²
Ġtem per
re at
ci Ã³
Ġh o
et s
ĠUn a
ue des
ĠL as
Ġgo od
Ġch ar
Ġf ÃŃs
j os
Ġl le
as es
Ġcual quier
ĠM ar
per o
Ġte or
Ġpe que
ĠlÃŃne a
Ġtrav Ã©s
m Ã¡
Ġs m
Ġm ant
Ð½ Ð¾Ð³Ð¾
Ġre du
Ġpar ti
Ð¾Ð»ÑĮ Ð·
Ġinforma tion
s h
on o
ĠH ere
Ġenerg ÃŃa
çĶ ¨
Ġpal ab
Ġci udad
ĠA quÃŃ
Ġres um
Ġinter es
Ġma in
Ġl ong
is tem
Ġw ant
Ġequ ip
Ġa plic
Ġf ut
âĢ Ļ
l ine
Ġb Ã¡s
ĠÐ¿ÑĢ Ð¾
Ġinte lig
Ġe d
Ġor ig
. "
un t
Ġcomp ar
ple ment
å º
Ġd en
Ġw ell
od y
Ġdeci s
ĠO pen
Ġcol or
Ġund erstand
Ġnum ber
ab a
Ġo tras
c ent
er ci
or t
Ġre d
Ġdes e
Ġfol low
w er
Ġj ug
Ġwor ld
an y
Ġin c
Ġspeci fic
Ġm il
Ġm Ãºs
em pre
Ġp i
ĠJ ava
Ġca us
d s
Ã ²
at ura
Ġcl ass
Ġpa ÃŃs
Ġke y
oug h
l ich
ar ÃŃa
ram e
Ð¿ ÑĢ
Ġhac e
ib les
Ġ Ã©s
Ġb ase
.. .
c le
Ðµ ÑģÑĤ
Ġj uego
Ġsim ple
x to
Ġor den
ier e
1 0
+ +
l i
è ĥ½
Ġa plica
ĠÐ ŀ
in ar
Ġan tes
ĠT ambiÃ©n
lar o
u ir
w ay
Ġf irst
Ġpar t
Ġpro du
Ðº Ð¸
aj es
ment s
Ġf ile
Ġes crib
u ta
Ġ â
Ðµ Ñĩ
om o
Ġv a
Ð½Ñĭ Ð¹
Ġhab ilidades
ĠT o
ie w
Ġem pres
Ġcas o
Ġc he
ÐµÐ ·
Ġop en
Ġ /
iv el
j ar
Ø §
Ġl lev
ow n
Ġdesar rol
at or
Ġperson al
à¸ ģ
Ġmuch as
Ġprov id
Ġpregun ta
Ġv el
ĠC re
y m
Â »
å Ń
ur as
ĠB e
ĠÐ Ŀ
Ġe ta
Ġpoc o
in do
Ġex pres
Ġresp uesta
Ġdeci r
Ġlan gu
Ġmate mÃ¡
ÃŃ m
Ġpodr ÃŃa
Ġarti ficial
Ġpar tic
: //
t ener
Ġes truc
Ġtrabaj o
Ġty p
ti s
at s
âĢ Ŀ
f ect
un a
Ġest as
istem as
t ud
Ġa j
Ð¸ ÑģÑĤ
Ġse e
Ġre alizar
ec e
ĠP ar
ier ra
Ġayudar te
Ġta ke
Ġ ir
Ã¡ g
Ġmin ut
N o
c as
c ol
Ġm ol
Ñĥ Ð´
Ġdes ign
Ġcont inu
Ġval or
C laro
Ġd r
di tion
æľ ī
Ġf l
at ure
ÐµÐ½ ÑĤ
Ġf Ã¡
ic aciÃ³n
p y
Ġw ater
Ġj ust
for e
ĠÂ «
Ġd ig
om b
Ġse l
Ġob s
Ġsi empre
ĠÐ¼Ð¾Ð¶ ÐµÑĤ
h od
i que
Ġo tra
it es
ĠP r
Ġest ar
ĠÐ¸ ÑģÐ¿
it or
Ġw ere
Ġse lec
ĠW e
Ġe mo
it as
Ġin de
ÑĢÑĥ Ð³
v al
un que
al th
Ġpro per
Ġon ly
Ġte xt
Ġle g
Ġinte gr
Ġseg ur
à¸ £
ion al
aj as
Ġsal ud
ĠÑį ÑĤ
Ġo wn
ĠÐ¿ Ð¾Ð´
Ġtecnolog ÃŃa
Ġd iv
Ġg us
Ñĥ ÑĢ
ĠH e
Ġbu ild
ar th
il la
Ġam pl
enti al
Ġsoci al
Ġd om
Ġm es
Ġb el
Ġal low
ã Ĥ
Ġan s
ra y
Ġim ag
Ġresp ons
Ġelement os
åľ ¨
sist ant
Ġs c
Ġ1 2
ĠÐ¸ Ð»Ð¸
Ġar g
ĠÐ¸ Ð½
tiv as
k et
n er
Ġs ido
et y
Ġdes cu
Ġpub lic
Ġ Ñħ
Ġp ower
ra g
Ġre v
if e
ĠM e
ĠN e
Ġm it
Ġtr y
Ġrecom end
w w
Ġb ack
ta ble
Ġdesarrol lo
y n
ar m
Ġpr iv
Ġap pro
ï¼ ļ
v o
è §
in aciÃ³n
Ġpro b
Ġinclud ing
Ð¾ Ñĩ
it er
Ġn ivel
Ġcons um
Ġs istemas
Ġespec ÃŃfic
Ġd u
Ðµ Ðµ
cion a
Ġresum en
h o
ar ia
Ð¸ Ñİ
Ġv iv
Ġr un
Ġsim ilar
Ġpol ÃŃ
Ġvel oci
Â ¡
Ä Ļ
Ġsol ar
Ġrec urs
Ã¡ m
Ġre ci
ĠâĢ ¢
Ġs w
el s
Ġcons e
Ġmodel o
j as
ens iÃ³n
ä½ ł
æ Ĺ
Ġ os
Ġp rac
ĠÐ ¡
ici os
Ġer r
s elf
Ġ era
Ġv o
Ġcap acidad
t ps
te xt
le ase
Ã± a
Ġmuch o
Ġide a
Ġdeter min
ĠB r
Ġmet hod
Ġteor ÃŃa
â ł
Ġm ill
ĠÐ¿ Ð¾Ð»
Ġper form
ĠÃ ł
Ġproble mas
Ġvide o
ĠmÃºs ica
P I
Ġn ombre
et os
er as
ÑĤ Ðµ
ic ar
Ġh ad
ĠP l
ÐµÐ ±
Ġinv ol
f o
å °
Ġf a
ent ar
am a
ect or
Ġcont en
Ġinf lu
Ð° ÑĪ
M L
v ing
å ¯
Ð°Ð¼ Ð¸
é Ģ
Ġl ado
ĠÐ¸ÑģÐ¿ Ð¾Ð»ÑĮÐ·
Ù Ħ
â ĸ
ci d
ĠT e
Ġfun d
j s
Ġp ass
Ã³ s
Ġes cr
Ġim plement
Ġsegur idad
Ġt ur
Ġes p
ĠAl gun
ĠmÃ© to
C u
Ġm er
ĠĠĠĠĠĠĠĠ ĠĠĠĠĠĠĠĠ
Ġt al
Ġs ue
Ġm al
pl y
Ġdes crib
Ġj un
oc a
ite c
r en
Ġperm ite
Ġprof es
Ġsm all
å ¦
Ġ :
Qu Ã©
à¸Ń à¸
' m
Ġb re
ĠC ol
Ġap ro
Ġcomple x
ĠâĢ Ķ
v ed
Ġh i
ä¸ į
ÃŃs ticas
ĠÃº til
er t
in as
Ġof f
Ġdis pos
Ġmater ial
" )
Ġd ay
Ġt are
Ðµ ÑĪ
Ġin cre
Ġt or
Ġayud a
Ġinv esti
5 0
Ġ Ãºn
Ġe ver
it ch
Ġbe ing
og le
äº º
" :
Ġcon j
Ð¸Ð ´
Ġcal idad
Ġtom ar
Ġecon om
f e
ter na
Ġex t
Ġmed i
Ġorig in
Ġa le
er te
ĠEs pero
Ġtra in
Ġmed io
Ġsign ific
en g
ĠÐ´ ÑĢÑĥÐ³
Ġentr en
Ġsigu iente
Ġd in
Ġd own
ĠÐ ļ
ĠF in
Ð¾Ð² Ð°ÑĤÑĮ
Ġcl im
Ġmen os
Ã©c n
Ġaplica ciones
' re
Ġto das
Ġinter n
Ġet c
Ġlangu age
c ado
ä ¾
æ ³
Ġs ens
on d
it en
Ġn uest
ÐµÐº ÑĤ
rate g
ĠÃº lti
Ġintelig encia
m an
Ġh ech
à¸ µ
ĠW hat
Ġad ecu
H ola
è ¦
Ðº Ð°
Ġdo es
Ġactu al
m l
ul o
ĠÐ¿ ÐµÑĢ
Ġpr Ã¡c
Ġne ga
Ġad v
Ð¸ÑĤ Ðµ
Ġav an
Ġpel ÃŃcul
Ġen g
ĠS ch
Ġr ad
Ġle ad
Ġincl ude
Ã¼ r
Ġorgan iz
en se
ien cia
ĠÐ¿ Ð¾Ð¼
Ġob tener
Ġlearn ing
Ġde v
at h
Ġre fer
Ðº Ñĥ
our ces
Ġa z
ue gos
Ġh t
Ġb est
ol s
iz aje
ant s
ĠÑ Ĩ
Ġsel f
é Ĺ
Ġc la
an ti
Ð° ÑİÑĤ
Ġpro pi
à¸ ±
Ġ1 00
iv a
port un
Ġcre a
Ġimport antes
Ġbo th
Ġutiliz ando
Ġobj etos
Ġmom ento
Ġt Ã©cn
Ġp an
Ġs ch
Ñĭ Ñħ
ation al
Ġcomm un
b as
r ite
ä ¼
er ÃŃa
Ġo ur
Ġn ame
Ġv ent
ĠP er
Ñı ÑĤ
ap e
a u
Ġd as
is mo
Ġv ia
Ġcom en
ke y
Ġvari able
Ð½Ð¾ÑģÑĤ Ð¸
æ ķ
Ġc ab
Ġes pa
ĠS ie
Ġnatur al
a f
e ta
n i
Ã ª
â £
ÑĤ ÐµÑĢ
Ġse gun
em a
Ġsu m
ĠH T
ä¸ ª
åı¯ ä»¥
g in
t le
Å ¼
Ġv ir
ol d
Ã¡ p
ich t
è¦ ģ
Ġ ÑĤÐ¾
Ġex p
Ġcu er
ÐµÑĤ ÑģÑı
Ġalgor ith
k er
Ġc ient
ĠC u
Ġ1 8
ĠThe y
ä¸ Ń
ĠfÃ¡ cil
n ess
æ Ŀ
en ces
os a
ĠA p
Ġlib r
Ġsegu ir
b ers
i ales
è Ģ
ent ro
Ñħ Ð¾Ð´
Ġaprend izaje
P or
Ġt res
Ġad ap
Ġf al
Ġes c
ir on
Ġle y
Ġpre fer
Ġst ar
ĠÐ¿ÑĢ ÐµÐ´
Ġesta ble
Ġproces o
c y
Ġ ig
Ġb ot
us s
t om
å ¸
Ġt ar
os o
ti tu
Ġh ard
Ġto p
Ġim pro
ĠÐ² Ñģ
ici o
Ð³ ÑĢ
Ġhe alth
Ġcas a
Ġd ivers
on t
Ġme z
Ġau f
Ġ .
Ġde ber
Ġen d
Ġin put
ĠÐº Ð¾Ð¼
Ġco un
Ġty pe
Ġinst al
Ġherramient as
Ġrecurs os
Ġal m
Ġbas ed
) )
Ġp ens
Ġe duc
Ġ2 00
cl us
av or
Ġpat tern
h or
ad d
Ġh uev
at ch
Ġes paÃ±
ite d
Ð½Ð¾ Ðµ
Ġev en
ĠAn d
Ġresult ado
g ram
h ip
u do
Ġp ap
Ġan al
Ġcon tr
ĠS o
l aciÃ³n
å ĩ
Ġe fici
Ġf re
Ð°Ð ³
Ġknow n
T h
n en
z as
Ñģ Ð»Ð¸
ĠâĢ ľ
Ġpalab ras
Ä ħ
è ¡
Ġs or
Ġun e
ta c
Ġgr u
Ġsab er
D e
Ġen c
( '
h ing
Ġe as
ul l
à¸ ¡
Ñĭ Ð¹
ib ilidad
Ġlo c
W hat
a use
å ·
Ġo c
Ġpro ject
Ġfe el
ĠfÃŃs ica
Ġfund ament
ch en
Ġ1 1
ĠÑģ Ð¾
ĠEs tos
Ġdispos i
a ke
Ġa Ã±o
Ġb aj
ĠA c
Ñĭ Ð²
Ġr ange
ä¸ º
__ __
l and
Ġes ti
ĠÐ¼ Ð¾Ð³
Ð½Ð¾ÑģÑĤ ÑĮ
Ġposs ible
n ame
Ġs ame
Ġs ource
Ġb i
Ġb ene
Ġes e
pu Ã©s
Ġo l
Ġof ten
Ðº Ð¾
Ġdoc ument
Ġconj un
n ing
est s
ĠÐº Ð¾Ð½
Ġdis pon
Ð´ Ð°
Ġchar acter
f y
Ġd ass
Ġe ine
Ġes per
ÃŃ o
ĠI A
Ġst ud
ell s
Ð¾Ð± Ñĭ
Ġlar ge
å į
ti es
ĠEs paÃ±
ĠHT ML
an ta
le x
Ġcont in
å ¼
å Ĩ
Ġs om
ad r
Ġf avor
ab or
od r
Ġfe w
Ġarch ivo
1 2
Ġ &
Ġa round
Ġs ÃŃ
ĠÐ ĺ
pl ay
Ġseg Ãºn
d ic
Ġpr om
Ġalgun a
Ġpas os
Ġcos as
a ti
z en
um n
Ġr is
ĠTh ese
Ġlar go
c os
ol Ã³g
ac es
Ġres ist
Ġqu i
Ġev ent
Ġmant ener
âł Ģ
S cript
r ent
Ġv on
ĠP ero
Ġbe h
Ġest ado
Ġfin al
Ġindivid ual
P ara
Ġd ud
Ġt end
Ġcon v
Ð½ Ð¸
ĠE uro
ab ilidad
Ġest Ã©
Ġr Ã¡p
ier to
Ġt Ã©r
is s
Ġre aliz
Ġpor que
Ġj o
tic s
Ġte xto
Ġab s
âĢ į
Ġma king
ĠÐ» Ñİ
Ġce bol
f ÃŃa
å ¾
Ġl ife
at os
Ġg l
por ta
Ġac ces
ĠÐ¾ Ñģ
Ġexper iment
Ġcomm on
olu ciÃ³n
Ġelectr Ã³n
ĠS ol
Ġlo gr
Ġent ender
Ġcol ores
Ġind ustr
Ġsup port
Ġc amb
w ard
å ¹
æ ī
ĠÐ Ķ
te c
Ġas eg
ĠÃ¡ re
] ,
é ¢
Ð½ Ð¸Ðº
Ð¸Ð ±
ĠÑģ Ð¿
Ġch o
Ġcor r
ÑĨ Ð¸
Ġvari os
Ġdeb ido
Ġreg ular
Ġexpl or
Ġfin an
Ġpun to
Ġquier es
Ġdise Ã±o
ĠGo ogle
å ¥
Ġa g
Ġa ir
Ġs truc
Ã¡ tico
Ġg ar
Ġqu al
Ġincluy endo
Ġobje to
æ ŀ
Ġse ver
Ġre lig
ĠA PI
Ġbu ena
l io
Ð¾ Ðµ
ĠEs t
Ġcons truc
ot s
Ġdif ÃŃ
ill s
Ð¶ Ðµ
Ġexperien ce
Ġenv iron
iz ed
Ġev itar
Ġescrib ir
Ġveloci dad
b or
u tr
Ġc um
Ġl ight
Ġm Ã©s
Ġcon vers
Ġel los
Ġcom e
ter ior
Ġsu g
ĠL o
Ð°Ð½ Ð¸Ñı
Ġcaracter ÃŃsticas
Ġobs erv
c la
Ġ Q
Ġl ine
Ġun os
ra ma
Ġ1 5
tiv idad
Ġr ight
Ġpat r
inu x
1 8
h en
Ġ Ø
Ð° Ñħ
ÐµÐ ¿
Ġas s
Ð¾Ð· Ð´
Ġc oc
Ġs ci
Ġo u
tion al
Ġval ue
Ġ< /
Ġfact ores
atu res
Ġpartic ular
I N
å Į
Ġp our
Ġh ere
Ġv i
Ġg ive
ion e
Ġop tim
Ġexperien cia
Ġusu ario
Ġequip o
Ã Ł
Ġs he
Ġg al
ĠT ierra
ç Ń
Ġa ument
ĠÐ Ń
at her
Ġg en
Ġme an
Ġch all
Ð¾Ð¼ Ñĥ
Ġgran de
Ġ20 2
âĸ Ī
< /
Ġm or
Ġse m
à¸ §
Ġbe fore
Ð¸ÑĤ ÐµÐ»ÑĮ
Ġsoci edad
Ġgra v
a ve
m ientos
ĠT r
f ec
Ù Ĭ
Ġs pe
ol ver
ĠR ec
Ġpre par
Ġenerg y
Ġempres a
Ġdescu br
O N
u le
Ġh ar
Ġn orm
Ġg ust
tr y
qu itec
Ġcomp on
ific ar
Ġnuev o
ĠJava Script
Ġre lev
et as
ĠI s
ver n
Ġap plica
Ġfo od
Ġestruc tura
ĠEspaÃ± a
Ġt ab
ad amente
Ġneces idades
rend er
Ġbec ause
k en
u a
ä ¿
Ġc ult
al la
ĠS u
Ġke ep
ĠnÃºm eros
-------- --------
ĠtÃ©r min
S ure
w ord
Ġm ight
ci al
ad es
Ð¼ Ð¸
Ġam or
ĠV er
Ġgran des
Ġtrans form
iel d
Ġf el
Ġcon ver
Ġel s
ÑĢ ÐµÐ¼
Ã© ctr
Ñĥ Ñī
Ġ= =
Ġab le
Ġejempl os
Ġconoci do
E x
U n
os s
is is
Ð° Ñĩ
ra ciÃ³n
Ġre m
Ñĥ Ð¼
ce ite
Ġlo cal
Ġproble ma
pen de
Ġpregun tas
Ġsystem s
Ã§ Ã£o
Ġd ir
Ġs ich
ĠÐ ¢
Ġy e
Ġb ro
ch ar
Ġpos i
ĠAs sistant
wor k
Ð°Ð± Ð¾ÑĤ
Ġminut os
1 6
b al
b les
h ora
æ ł
Ã³ mo
Ġel se
ed or
ab r
Ġne ur
Ġbet ter
Ġusu arios
æĸ ¹
ĠÑģÐ² Ð¾
m er
ĠÐ ľ
Ð½ Ð¾Ð²
Ġval ores
Ġbus car
Ġecon Ã³m
Ġig ual
ç ¨
Ġan ti
ch a
à¸ Ĺ
io us
é ĩ
Ġt ro
ti ene
ĠTh ere
ÐµÐ³ Ð¾
ĠÐ Ĳ
Ð° Ñİ
Ġcon n
ch o
ib r
ier en
Ġser ÃŃa
Ġmu est
Ġt ak
us ti
il s
il y
ĠC al
Ġem pe
uer ra
olog ÃŃa
Ġinde pend
" >
Ġd Ã©
Ġc le
Ġal iment
Ġsu re
if y
Ġvari edad
Ġtech nolog
Ġconten ido
Ġcient ÃŃfic
Ġcebol la
ĠP re
ĠP uedes
ist as
Ġus er
tu al
Ġdis tribu
les s
Ġtem a
Ġcuer po
h l
es ta
Ġa unque
Ġd entro
Ġc op
ic an
ig ura
Ġcu Ã¡n
Ġha cia
Ġar t
Ġar quitec
Ġcl ase
ĠðŁ ĺ
Ġtrabaj ar
Ġweb s
Ġtemper atura
E R
r Ã¡
Ġs to
Ġres ul
ĠÐ¸ Ð¼
Ġcl ar
ĠÃ ¨
p t
u f
u res
y le
z y
æ Ģ
Ġ Qu
Ġm ass
le t
ÑĢ Ð¾Ñģ
Ð» Ñİ
à¸ ´
Ġcont ra
Ġunivers o
Ġtas ks
ĠespaÃ± ol
O S
é Ŀ
Ġp ur
Ġm ent
Ġcon oc
Ġherramient a
Ġproy ecto
Ġdig ital
Ġapro xim
A quÃŃ
æ Ķ
ç Ľ
Ġp Ãº
is iÃ³n
ra w
Ġse c
ig os
à¸ ¢
ĠM an
Ġwith out
ĠIn s
Ġro b
æ³ ķ
1 5
Ġb at
Ġn on
ÑĢ Ð°Ð½
ech a
Ġsoci ales
Ġcam po
Ġfut uro
Ġt an
Ġes s
Ġel Ã©ctr
ĠE m
Ð¸Ð¼ ÐµÑĢ
Ġform as
Ġmis ma
Ġprim er
è¿ Ļ
Ġincluy en
Ġmus ic
ĠÐºÐ¾ÑĤÐ¾ÑĢ ÑĭÐµ
Ġfollow ing
Ġsever al
f in
g aciÃ³n
Ġp ack
Ġs enci
Ġide as
Ġcul tura
S i
m ed
Ä ĩ
æ Ĭ
Ġd ÃŃas
Ġb al
Ġma ch
Ġele g
Ġques tions
Ġens ure
ĠmÃ©to do
g as
æ Ĥ
ĠS t
Ġ3 0
Ġinter ac
ÑĪ Ðµ
way s
Ġtare as
on al
Ġth ings
Ġg lo
Ġest Ã¡s
ĠF ran
ĠO ne
Ġdifer encia
Ġprincip al
Ġprincip ales
Ð°ÑĨ Ð¸Ð¸
Ġa que
Ġa gre
ÑĢ Ð¸
ant as
Ġtr at
Ġop ciÃ³n
ĠÃ© l
Ġimp ac
Ġp Ã¡g
Ġf oc
Ġes cal
tr ic
ĠS h
ĠS ome
Ġac cess
Ġst art
Ġef ec
Ã¶ n
ç¨ ĭ
m en
Ġc el
on om
Ġes a
Ġu til
ĠO r
Ġrela cion
Ġperm iti
Ġni Ã±os
å¦ Ĥ
L ist
a i
b ra
o le
in ess
Ġl ess
Ġpre v
Ġk ann
igh ts
Ġvari as
Ġplan eta
Ã©r ica
Ġproy ectos
Ġintegr al
â£ ¿
Ġs cript
Ġm Ã¡
Ġe cu
Ġv eces
ĠE arth
à¸ Ķ
ĠC an
ÐµÐ½ ÑĮ
Ġar r
Ġst and
Ġhay a
ario us
Ġcur rent
C an
b s
g l
m ar
Ġa ud
Ġde pende
Ġg as
Ġre ce
Ġcons tr
Ġop ciones
Ġencuent ra
Ġever y
E T
b y
Ġc ase
ic ally
im ientos
am es
à¸ ¥
ut ar
Ġim pres
Ġcomp u
ĠĠĠĠĠĠĠĠ Ġ
Ġpued a
Ġvari ables
Ð¾Ð»ÑĮ ÐºÐ¾
Ġrequ ire
Ġresult ados
Ġobje tivo
Ġenviron ment
S S
Ġs ize
Ġf er
Ġre laciÃ³n
ĠE r
ut ton
Ġex tra
Ġon line
ĠEs tas
ici dad
Ġhab it
Ġev al
Ġneces ario
Ġdevelop ment
Ġrepres ent
b an
Ġo der
Ġes o
ĠC ar
ĠM o
ord es
iti ve
ĠÐ· Ð°
Ġaut om
Ġinf in
å ±
å ½
ÑĤ Ð¾Ð±Ñĭ
Ã¡ tica
Ġre mo
Ġis s
ĠD is
Ġdis fr
ĠO n
Ð· Ñĭ
Ġtip os
âłĢ âłĢ
o king
Ġa gr
Ġl uego
Ġv arious
Ġre pe
Ġpar tir
ir d
ĠÐ¾ Ð´
Ġmed ida
Ġprog rama
Ð³ Ð¾
ga in
Ġdeb en
Ġprim era
åŃ ¦
Ġans wer
Ġd id
Ġm ade
Ġw ord
Ġcomp ut
ite m
Ġdif fic
Ġcla ve
Ġaseg ur
d ay
en n
Ġa mo
Ġa ceite
ti do
is m
Ð½ Ðµ
Ġv ector
ĠH ay
Ġutiliz an
Ġop in
Ġter min
Ġbu en
Ġalg Ãºn
åĽ ½
â ķ
un gen
Ġf uego
ro w
id es
Ñģ Ð»
ĠL inux
Ð¾Ð³ ÑĢ
å¯ ¹
odr ÃŃas
Ġcamb io
l la
p ing
Ð ļ
en de
Ġm ens
ĠÐ ł
Ġre ad
am ple
Ġres ources
Ġ5 0
fici ent
Ġdeb es
ff e
ĠdifÃŃ cil
P T
Ġf lu
Ġo portun
Ġcon tain
Ġg an
ĠC o
ist en
Ġgener ar
Ġef fect
Ġra z
Ġht tps
6 0
d iv
æ Ń
ci do
Ġw rit
ec k
Ġsu c
um ento
lo ad
Ġinter f
Ġcal or
Ġrequ i
Ġpropor cionar
Ġaplic aciÃ³n
indo ws
Ġdiffic ult
1 7
M e
ç §
Ġto tal
tr ing
Ð¸Ð ³
est ing
Ġch ang
Ġfun cion
äº Ĩ
ht ml
Ġbel ie
æĤ ¨
T e
Ġ >
Ġp s
Ġp on
Ġp la
à¸ ĩ
ĠÐ² Ð°Ð¼
ĠG e
ĠJ o
Ãºs que
Ġorigin al
m on
é ľ
Ġ Ù
Ġt able
un o
Ġg reat
ĠS al
Ġpod emos
Ġarg ument
Ġpropi edad
k es
ç Ĳ
an k
te ll
th ers
Ġest Ã©n
ĠÐ¾ Ð¿
Ġpl ace
Ð¾ÑĢ Ð¼
Ġid i
Ġsenti do
Ġf rame
Ã© tica
et hing
Ð² ÐµÑĤ
tro duc
Ġserv id
Ġsigu ientes
Ġimp act
Ġsp ace
Ġques tion
Ġalm ac
ar on
Ġf ree
Ġg iv
Ð» Ð¾
ib lio
ĠÐ½ Ð¾
Ġst ory
Ġexpl ain
Ġfo und
Ġalgor it
L os
s et
Ġ ?
Ġf aci
ĠI m
Ġ1 3
Ġcomp os
ĠÐ½ Ð°Ð¿
Ġcu anto
tu res
Ġav ail
Ġten go
Ġmag n
A I
v as
v il
è ´
Ġ ][
Ġs ind
an os
Ġm ess
at as
Ġare a
Ġfun ciones
Ġhum ano
Ġaf ect
Ġproble m
Ġph ys
Ġmulti ple
Ġy o
Ġh ora
ra ft
il lo
et ro
cion ales
Ġpo int
Ġconoci miento
ale za
Ġesto y
Ġfu ente
æĹ ¶
Ġmedi ante
éľ Ģ
P uedes
l ing
ç İ
Ġc in
Ġp ad
Ġp ant
Ġn ada
Ġv ac
Ġse Ã±
Ġal ta
ĠÑģ Ð°Ð¼
ĠR ed
ari as
Ġpres ent
Ġlib ro
Ġamb iente
Ġexam ples
Ġout put
Ġbl an
Ġpreci s
v ia
Ġt im
Ġc are
re ad
Ġan o
us o
Ã© l
Ñĥ Ð¶
Ġim age
and a
Ð¾Ð» Ð½
Ġcar r
Ġconcep tos
ĠmatemÃ¡ ticas
Ġespa cio
Ġfundament al
( );
l ight
Å Ľ
Ġt ama
iz aciÃ³n
qu est
Ġest re
Ã± ar
Ð°Ð½ Ð¸Ðµ
Ġcomm and
Ġfact ors
Ġsup uesto
7777 7777
ĠCu ando
Ġhuev os
1 4
æ ı
Ġa gain
in ts
ta ciÃ³n
à¸ Ħ
por te
ĠÑģ Ð¾Ð·Ð´
Ð² Ð»Ñı
à¹ Ħ
ĠÑĢ Ð°Ñģ
ĠÐ± ÑĥÐ´
Ð½Ð° Ñı
Ġsk ills
Ġappro ach
Ġcomen zar
Ġsom ething
us h
ta tion
ou d
Ġse par
ers e
Ġno ti
Ġas p
ĠM ed
ĠR es
til l
ici al
Ġap p
Ġk Ã¶n
Ġsh ow
Ġhab ÃŃa
Ġredu cir
Ġimag en
Ġsw itch
ĠprÃ¡c tica
Ġeval u
Ãºsque da
C on
H ow
p x
Ġa ch
Ġc iencia
Ġs ay
Ġse an
Ġal ways
ur al
Ġk il
fer m
Ġcal led
Ġni Ã±o
Ġprote c
Ġing red
Ġpart ÃŃcul
ĠAlgun os
Ġmez cla
ĠÐ¼Ð¾Ð³ ÑĥÑĤ
H ere
o id
u x
Ġf ur
Ã¡ r
Ġof re
Ġal can
à¸ ķ
ĠC ons
Ġno w
Ġcre aciÃ³n
Ġaut oma
Ġmas a
: :
C Ã³mo
Ġd ia
un e
ti o
ro id
it ud
ÐµÐ ¶
Ġ2 5
Ġle vel
Ġad dition
Ġrec ord
ĠWh en
Ġredu ce
çĲ Ĩ
Ð Ł
Ġ ich
Ġl ec
ta te
Ġre con
ir m
Ġ- -
Ġcont ent
ub e
Ġmej ores
Ġpot ential
Ġmater iales
Ġexist en
d ata
r or
Ġd ue
Ġo x
ÃŃ r
Ġdes af
Ġver y
Ġev id
enci al
Ã¤ n
æĪ ĸ
ĠÐµ Ð³Ð¾
Ġsta te
Ġtyp es
Ġhech o
Ġalgorith m
Ġpap el
Ġempe zar
b ody
i od
ã ĥ
le g
Ġto da
ier on
yth ing
Ġins truc
Ġreal idad
Ġcompr ensiÃ³n
Ġdesarroll ar
Ġcir cu
Ġlle gar
Ġintern et
Ġgru po
H ay
Ġp ag
Ġde cl
Ġcon tribu
Ġal terna
em ber
ier a
Ġj uegos
Ġser ie
Ġser ver
Ġte am
ĠG r
Ġqu ien
Ð°Ð½ ÑĤ
ĠÑĩ ÑĤÐ¾Ð±Ñĭ
Ġtem as
Ġten ga
Ġau to
Ġing l
Ġste ps
è¡ Į
9 9
u an
è ĩ
Ġl iv
Ġcon te
Ġdes puÃ©s
Ã± as
Ġyour self
Ġem p
Ġhab lar
Ġmed ia
Ġneces s
Ġval ues
Ġcomun es
Ġlim it
Ġconst ante
Ġhuman os
Ġmov imiento
ĠpaÃŃs es
Ġimpro ve
â£¿ â£¿
m ing
m end
n s
Ġm ir
Ġm ust
un ca
ti me
Ġf Ã¼r
Ġo thers
Ġto ols
ig e
à¸ °
Ġac er
uc k
Ġcons ult
Ð¾Ð» ÐµÐµ
our s
Ġmen or
Ġmar ket
Ġum a
Ġrespon se
Ð½ÑĭÐ¼ Ð¸
Ġidenti fic
A s
æ ²
Ġa gu
Ġc at
Ġb ody
Ñĥ Ñģ
ÑģÑĤ ÑĢ
ĠB l
cul ar
Ġmod er
Ġprac tic
Ġesti lo
Ġconjun to
Ġano ther
l ab
Ġ ur
Ġt re
ci os
Ġun til
Ġb iblio
Ð» ÐµÐ½
to gra
à¸ «
tiv ely
ot os
Ġinter pre
Ġund er
Ġnatur aleza
Ġinc or
Ġampl ia
Ġacces o
Ġingl Ã©s
j an
Ġde tec
Ġf on
Ġla bor
Ġcom Ãºn
ac er
Ġ1 4
ica tion
Ġpre dic
ll as
ust om
Ġprog res
Ġver d
Ġver dad
Ġneces itas
Ġpol lo
Ġdecis iones
Ġalmac en
V iew
v is
Ġa Ã±
Ġt ÃŃ
Ġm ind
ĠÐ ķ
Ġb Ãºsqueda
Ġn icht
iz ar
ĠB o
Ġso y
Ġpl ata
Ġcol umn
äº İ
Ġexpl icar
ĠAm er
Ġactiv idades
Ġcambi ar
Ġsignific ant
Ġdisposi tivos
ĠpÃ¡g ina
Ġach ie
. -
8 0
Ġp ic
Ġs till
ing le
Ð½ ÑĥÑİ
Ñĥ Ð¿
ut as
Ġres olver
ĠÐ¸ Ð³ÑĢ
ĠB ar
Ġme as
Ġac ordes
Ġwor ks
O R
n ot
Ġm ot
ou ble
im in
ĠA t
ĠD o
Ġr om
Ġman ag
Ġst rateg
Ġperson ajes
Ġcor re
Ġele c
Ġmat ch
Ġcontinu aciÃ³n
ĠÐ¸ÑģÐ¿Ð¾Ð»ÑĮÐ· Ñĥ
Ġnuest ro
Ġfoc us
' )
c ome
i antes
Ġs Ã³
Ġn et
Ġw er
Ð» ÑĮ
à¸ ª
ĠC l
ĠÐ² ÑĢÐµÐ¼
Ġpl at
ĠAd dition
Ġca use
Ġaut or
Ġnum bers
Ġaf ter
Ġdepend iendo
ĠÐ±Ñĭ ÑĤÑĮ
Ġindivid u
Ġtama Ã±o
g s
en cy
Ðµ Ñħ
Ġen ti
ic ros
Ġn utr
ien e
ĠÑģ Ðº
he ad
ĠW or
Ġwe ight
Ġhab l
Ġform at
ĠÃ ¼
Ġdist ancia
Ġcomun idad
uest as
Ã¡l isis
Ġtecnolog ÃŃas
Ġgro w
Ġgus to
ĠÐŃ ÑĤÐ¾
Ġservid or
Ġavail able
m ine
en ciÃ³n
Ġs os
Ġen ferm
Ġg Ã©n
el lo
Ġof rec
ur ing
ÑģÑĤ ÑĮ
Ġcre ating
I I
n cia
p ython
or n
ÃŃ fica
ĠM on
Ð¸Ð ¿
ĠÐ² Ð¾Ð·
Ġar te
Ġpers pec
ĠÑ Ī
Ð°ÑĤ ÐµÐ»ÑĮ
cal e
åĪ Ĩ
Ġfamil ia
2 00
3 0
f era
p p
Ð ¡
è µ
é Ļ
Ġp ython
Ġf abr
Ġen ter
Ġw id
ÑĢ Ð°Ð²
Ã¡ fic
ul es
Ġas k
ĠB y
uc le
all s
Ġcum pl
Ġmach ine
Ġimpac to
æı Ĳ
L as
d r
Ġs art
Ġm os
te ly
ab ility
et es
ap p
Ġdis co
Ġhab er
ĠðŁ ĳ
ĠÐ· Ð°Ð´
ador a
äº Ľ
ĠRe g
ĠÑı Ð·Ñĭ
Ġdirec t
Ġnuev as
Ġjug adores
Ġchall en
' ll
2 5
I D
æ Į
Ġh im
Ġh oy
ro z
Ġn ing
Ġcon cent
Ġv an
ient a
Ġqu ÃŃm
Ġstr ing
Ġallow s
ĠpelÃŃcul a
Ġaument ar
Ġverd uras
Ġsart Ã©n
P U
i us
z os
æ İ
Ġd ich
Ġto o
ÑĢ Ð°Ð·
Ġcom ien
res pon
ab il
tiv es
Ġqu ick
Ġca f
Ð½Ð° Ñĩ
ww w
Ġeng ine
" );
A n
e k
g ame
æ ĥ
re am
Ġf ran
Ġf ish
Ġn unca
Ġv oc
ĠÐ¸ Ñħ
gu ien
cul o
Ġgo vern
å¤ §
Ġmain tain
Ġprodu ce
ĠAddition ally
1 3
ar r
or r
Ġv uel
Ġcom ida
Ġsu fici
ĠÐ² Ð°ÑĪ
ĠÂ ·
ĠÐ± Ð¾Ð»ÑĮ
Ð¸Ð¼ Ð¸
Ġproduc to
ĠÐ¼Ð¾Ð¶ Ð½Ð¾
Ġcent r
Ġsenti r
Ġavan z
âĸĪ âĸĪ
Ġ %
Ġa us
on y
Ġn or
ÑĢ Ð°
Ġv ar
ur y
à¸ ·
Ġex iste
Ġam igos
Ð°ÑĤÑĮ ÑģÑı
Ġrela tions
Ġdur ing
ĠÑı Ð²Ð»Ñı
å¥ ½
ĠtÃ©rmin os
Q L
o ve
u to
Ġde ta
it z
ul as
Ġim ages
Ð¼ Ð¾Ð¶
ä¸ ĭ
ÐµÐ» Ð¾Ð²
aliz ed
Ġej erci
Ġprogram as
Ġlib ros
Ġproduc tos
Ġbec ome
Ġjun tos
Ġresist encia
Y es
Ġc ost
Ġm el
Ġth ose
Ġcon clus
Ġre des
Ġal guien
Ġqu er
Ġob ra
ific aciÃ³n
Ġta x
Ġdist in
Ġmat h
ä¸Ģ ä¸ª
Ġfuer za
a hr
b en
r bol
Ġa ire
in ter
te l
Ġb an
Ġpar tes
aj a
ÐµÑĢ Ð¶
çļĦ ç
Ġvari ar
Ġvari ety
Ġreg ul
Ġlib re
ĠÐ³ Ð¾Ð´
Ġrecom mend
åĲ Į
Ġprovid es
Ġvideo j
Ġdin ero
Ġaz ul
ĠÐºÐ¾Ð¼ Ð¿
ĠpÃº bl
Ġcaf Ã©
A r
e arch
Ġin no
Ġw rite
ÑĢ Ð°ÑĤ
Ġse x
Ġse arch
Ġre p
il ibr
ĠI r
th e
Ġdis c
ite ms
Ġfr ien
Ð°Ð¼ Ð¼
Ġpo ints
Ġpodr ÃŃan
å® ļ
Ġcambi os
indo w
ĠÐ¸Ð½ ÑĤÐµÑĢ
Ġinvesti gaciÃ³n
ä¼ ļ
Ġgust arÃŃa
Ġmuest ra
Ġtechnolog y
Ġbiblio te
1 1
d is
i ado
y a
Ġen se
ĠS im
ĠT er
Ġus es
Ġj e
ĠIn tern
Ġpas o
Ġder ech
Ġpodr ÃŃas
Ð¾ÑģÑĤ Ð¾
Ġref iere
éĹ ®
éľĢ è¦ģ
l er
u j
ï ¸
ð Ŀ
ĠÐ ĵ
Ġth ink
te ad
im ens
ĠC O
Ñĭ ÑĤ
Ġ1 6
Ġlo ok
tiv amente
ĠW indows
ĠU se
à¹ ĥ
Ġat enciÃ³n
Ġmod ern
Ġsin o
Ġbut ton
Ġmin im
Ġtom ate
ÐµÑģ Ñģ
Ð¾Ð¿ ÑĢÐ¾Ñģ
Ġdese as
Ġarquitec tura
Ġsuc cess
b ier
Ġc ier
Ġp uer
Ġes cu
Ð½ Ñı
Ġme ans
Ðº ÑĤ
ĠG u
Ġ= >
se g
Ġinte gra
Ġprim ero
Ġconf lic
Ġinst all
Ð¸ÑĢ Ð¾Ð²Ð°Ð½
ĠbÃ¡s icos
Ġtrain ing
é¢ ĺ
ĠRec uer
Ġresul ts
ï¸ ı
P odrÃŃas
T P
Ġal red
ĠĠĠĠĠĠĠĠ ĠĠ
Ġpre cio
gen es
tur as
bo ard
Ġentr ada
ĠtÃ©cn icas
æĿ ¥
Ġbaj o
o ft
Ġp y
Ġla y
Ġun ique
à¸ ³
ĠB ut
Ġper iod
Ġac cu
ÐµÐ½ Ð¸
ĠÐ¿ÑĢ Ð¾Ð³ÑĢ
Ġcar ne
Ġter ms
get her
Ġcer tain
Ġexpres s
ä¾ ĭ
ĠÐ»Ñİ Ð´
Ġconstruc ciÃ³n
Ġgal ax
Ġfaci l
p ers
Â °
Ġp lease
Ġs iendo
ur ante
ï¼ Ł
Ġst yle
à¹ ģ
Ġpos iciÃ³n
Ġgra cias
olu tion
Ġhor as
Ġerr or
Ġmer cado
Ġmean ing
Ġwer den
h a
k a
n os
Ġt el
Ġc ustom
Ġm Ã³
ci endo
Ġen fr
Ġan terior
ra in
Ġcom porta
Ġlo oking
Ġman o
Ġpos ition
æĪ Ĳ
Ġconsider ar
Ġdirec ciÃ³n
Ġplay ers
omb res
Ġpatr ones
Ġcompu ter
h ol
ti ce
Ġres earch
Ġor g
Ġpl us
ll ig
ĠÑĩ ÐµÐ»Ð¾Ð²
Ġef ecto
Ð°ÐµÑĤ ÑģÑı
ĠWh ile
Ġsolu ciÃ³n
Ġrepres enta
Ġparti cip
Ġaj ust
Ġdesign ed
Ġperform ance
éĿ ¢
ĠÃ¼ ber
6 4
Ġa ta
er ing
Ġp ie
ar lo
Ġh om
Ġthe ory
Ġto gether
ĠA gre
ut s
Ġj ugar
ä¸ Ĭ
cu encia
Ġem ple
ll os
av es
Ð»Ð¸ Ñĩ
ÑģÑĤÐ² ÐµÐ½
Ġter m
ä½ ľ
ĠÃ¡ rbol
Ġna ve
Ġrespon der
Ġobject s
Ġconstr uir
7 0
g i
è ¾
Ġa Ãºn
Ġc ity
Ġm ec
is ti
Ġw ie
Ġor ient
Ġest ad
Ġser Ã¡
for t
gen ier
Ġpres s
Ġinte llig
Ġfe atures
Ġproduc ciÃ³n
Ġcalcul ar
Ø§ ÙĦ
ĠpelÃŃcul as
åĩ º
å· ¥
Ġdispon ibles
Ġspe ed
Ġrelations hip
L o
o ks
on ces
Ġl uch
Ġen f
Ġcon ect
am ento
em on
ut or
ĠL et
ĠÐ¿ Ð¾Ð½
iv al
Ġdes t
ĠG ran
ne y
åı ĳ
ä½ ¿
Ġamb os
Ġhist or
åĪ °
Ġincluy e
Ġsuper fici
Ġpopular es
Ġsolu ciones
åº Ķ
Ġunderstand ing
Ġprofes ional
Ġentren amiento
S T
c tions
Ġl ic
or g
ci pl
Ġf ield
Ġcon duc
Ġv en
im os
Ġg uerra
Ġex tre
Ġcan not
Ðº Ð¾Ð²
Ġcons id
Ġle ft
Ġcl ic
Ġtr as
Ġgr ad
ĠâĢ ĵ
Ġequ ilibr
Ġneed s
Ġconoci mientos
Ġstr ong
Ġpun tos
åľ °
Ġdem Ã¡s
è§ £
Ġhard ware
çŃ ī
ĠkÃ¶n nen
ĠRecuer da
A l
z an
ci miento
Ġf lo
Ã³ p
at ro
Ġn ar
us ion
ul os
Ñı Ð·
ĠD ata
oc ar
Ġar ray
Ġhist ory
Ã¨ re
ĠÐµ ÑģÐ»Ð¸
è¿ Ľ
Ġste p
Ġpeque Ã±o
Ġdom in
Ġfinan ci
Ġtak es
Ð»Ñİ Ñĩ
Ġpant alla
c s
u en
Ġd ol
an za
al ada
Ġf amos
Ġan Ã¡lisis
Ġcon tac
el o
ĠÐ² Ð¾Ð¿ÑĢÐ¾Ñģ
Ð´ Ñĥ
Ġst or
Ġsig ue
ĠÐ± Ð¾Ð»ÐµÐµ
Ġesta ba
ĠAd d
Ġnuest ra
Ġconn ec
C om
f ace
y e
Ġm ad
un k
Ġe dad
Ð» Ð°ÑģÑĤ
Ñı ÑĤÑĮ
Ġdes ta
Ġor der
Ġr ies
Ġcomp render
Ġu b
uer zo
ĠÑĥ Ñĩ
Ġgr atu
Ġprof und
Ð¸Ð» ÑĮ
Ġvide os
Ġpalab ra
ĠNe w
ĠÐ¾Ñģ Ð½Ð¾Ð²
Ġidi oma
Ġplat form
Ġsufici ente
S e
k i
t p
è ¨
ti que
Ġf as
it an
Ġes tr
Ð½ Ð°Ðº
Ġcomp e
Ġac t
aliz aciÃ³n
ÑĨ Ð¸Ð¸
Ġef ectos
Ġli k
esti Ã³n
Ġbus iness
Ġway s
ht tps
Ġpes o
Ġcondi ciones
Ġfamil iar
Ġapplica tions
Ġconoc er
icros oft
h n
Ð Ĵ
å ¿
æ Ħ
Ġc ells
ar k
ĠÐ ĳ
al a
al ity
Ġf lex
Ġg ente
Ġof fer
ig en
oc k
til la
Ġmu erte
Ġch ange
Ġtr ata
ĠV is
Ġop tions
Ġgo als
ĠÐ¾Ð± ÑĥÑĩ
Ð¸ÑĤÑĮ ÑģÑı
Ġpregun tar
Ġprof ess
Ġobje tivos
Ġllam ado
Ġvia je
Ġofre ce
Ġalred edor
R e
i ra
r om
æ Ľ
Ġs yn
Ġde t
Ġh ag
Ġb a
ro p
Ġel la
ter a
ab e
Ġim plica
Ġj a
Ġad j
Ġch ild
ĠÑĤ ÑĢ
Ã¡n ica
pos e
Ġdist ance
led ge
ĠespecÃŃfic as
Ġdescrib e
Ġlibr ary
Ġwebs ite
Ġinno v
ĠÐ¿ÑĢÐ¾Ð³ÑĢ Ð°Ð¼Ð¼
E N
s er
v i
Ñ Ĭ
Ġd og
Ġt ell
ti g
Ġh y
ta x
il t
et her
iv os
Ġap oy
Ġsol ici
Ġent onces
Ġsal sa
Ġconsider ed
è¿ ĩ
æķ °
Ġeleg ir
èĩ ª
æ ĭ
Ġs il
ĠS an
Ñĥ ÐµÑĤ
ĠL uego
Ġ- >
Ġas tr
Ġest rateg
Ġcomp any
ĠÐ¿ÑĢ Ð°Ð²
ĠV al
Ġcap ital
Ġinv ers
ĠÐ» Ð¸
Ġint ens
à¸²à¸ £
Ġpattern s
å¹ ¶
Ġtim es
ĠpartÃŃcul as
Ġfur ther
4 0
Y ou
j er
r ar
w h
Ġs qu
ÑĢ ÐµÐ´
ta ck
à¸ Ī
ĠÐ¿ Ð¾Ñģ
ĠM y
ĠM ax
Ġres ta
Ġlo w
Ðº Ðµ
Ġcu adr
Ġne xt
Ð°Ð½ Ð¾Ð²
ä¸ İ
Ð¾Ð³ Ð´Ð°
Ġrequ iere
Ġup d
Ġblo ck
Ġbene f
ĠEuro pe
æŀ ľ
Ġaproxim adamente
Ġstand ard
Ġrepe ti
å ĳ
Ġe g
om as
ÑĤ Ð¸
ec er
Ġcar b
ys is
olog y
Ġbas a
çĶ Ł
Ġdise Ã±
ĠAlgun as
âĢį ðŁ
Ġamo unt
S ÃŃ
i um
i tical
o od
s ec
Ġ iz
Ġf echa
Ġo cur
Ġn ues
ol es
ĠS ystem
ab an
ĠC r
ĠC ada
iz a
ĠH ar
Ġte x
Ð¾Ð² Ð¾ÑĢ
ĠW ith
ĠO p
åĬ ¨
iel o
Ġce le
Ġmem ory
Ġcondi tions
Ġllev ar
Ġefec tiva
Ġmess age
t Ã³
t res
Ð Ŀ
Ñ į
in os
Ġl Ã³g
ÃŃ os
Ġv ista
am p
il es
Ġlo op
Ġap ar
Ġdis cr
Ġk ind
Ġfun ciona
Ġsig lo
Ġsim pl
az Ã³n
Ġind ica
Ġmi x
ĠÑĤÐ°Ðº Ð¶Ðµ
ĠÐ¶ Ð¸Ð·
Ġjug ador
Ġproper ty
bas ed
ÑĥÑī ÐµÑģÑĤÐ²
Ã µ
æ µ
Ġd or
Ġd rag
Ġl iter
Ġde c
Ġb es
im o
Ã¡ les
Ã¡ genes
Ġim Ã¡genes
Ãº rate
ÐµÐ½ Ð¸Ð¹
Ġle er
Ġdis play
ĠU tiliz
Ġincl uir
Ġmo tiv
Ġpo bl
Ġau ch
Ġcomun icaciÃ³n
Ġdar k
ÑĥÑĢ Ñģ
ĠÃºn ica
Ġsci enti
Ġcult ural
Ġaliment os
G PT
m od
p per
ç Ĥ
Ġc od
Ġs ie
ra tion
ĠP h
if t
ient s
ĠG ra
ĠÐ¼ ÐµÐ½
ĠO ver
Ġincl uso
Ġdifer ente
Ġmodel os
ĠYou T
Ġho pe
Ġmill ones
eng th
Ġsegun do
Ġbeh av
ĠÃ¡re as
Ġye ars
Ãµ es
Ù ħ
Ù Ĩ
Ġd ivid
Ġd ouble
Ġs ym
ue la
Ġv ect
ĠM icrosoft
Ġus ando
ĠW ord
Ġst d
ÃŃs tica
Ġreg is
Ġhum ana
Ġav oid
Ġvis ual
** :
Ġsa tis
Ð°Ð¶ Ð´
ä¹ ł
Ġanim ales
wor ks
Ġinvol ves
ni ques
Ġment al
n g
w ar
in ation
Ġh ip
Ġan ything
Ġn p
Ġre cu
Ġre ach
ed o
Ġsu ma
um e
Ġ1 7
ma in
ĠG er
and om
Ð´ ÐµÐ»
cul os
Ġmo do
äº §
ĠRe v
Ġide al
uest os
Ġnuev a
ÐµÑģ ÑĮ
Ġencuent ran
j ec
ad er
Ġf ic
Ġf res
ent os
Ġre duc
ĠS p
ĠL es
Ġr end
Ġpr ue
Ġser es
Ġha z
og n
Ġab r
Ġab ility
Ð°Ð» Ð¸Ð·
Ġbas ic
ä½ ĵ
Ġamb ient
arn ing
å¤ ļ
åĬ ©
Ġelement s
ĠCom o
Ġlet ra
Ġlle g
Ġminut es
Ġreci b
ĠÐ¿Ð¾Ð» ÑĥÑĩ
Cu Ã¡l
T o
] .
d it
é Ľ
an e
Ð¾ ÑĪ
ad ir
Ġf ac
ĠS et
Ñĥ Ð½
ĠÐ² ÐµÑĢ
Ġar roz
Ġej ec
ech an
gen o
Ġef fec
Ġhacer lo
pre ad
lec t
Ã¨ s
Ġfil oso
Ġelement o
Ġmat ter
Ġgro up
Ġcorrec t
Ġmant en
Ġstruc ture
Ġpack age
Ġsuperfici e
3 2
h al
u te
æ ¨
Ġc Ã¡l
Ġs ide
as on
Ġm ic
Ġb ig
it at
Ġcon cre
Ð» Ð°
Ġex pos
Ġcons ist
Ð´ Ðµ
Ġfun ctions
Ġresp uestas
Ġserv icios
Ġsegu ro
Ġcontrol ar
Ġlengu ajes
Ġtrad i
Ø§ Ø
Ġtyp ically
ĠWe b
Ġprob able
Ġincre ase
ĠÃ¡re a
Ġcle ar
Ġenferm edad
Ġmath ema
A c
Q ue
ç ½
Ġa cid
Ġc our
ci ente
Ġan ci
Ġre ac
Ã© e
ul ation
Ġal to
à¸ ¹
ĠC or
ĠC hat
ĠC SS
ĠD ie
ĠD oc
ap s
ion i
Ġst ore
ĠÐ´ Ð¾ÑģÑĤ
Ġz ona
ĠðŁ §
Ð°Ð» Ð¸
Ġreg las
Ġespeci al
Ġmem oria
Ġsitu aciÃ³n
âĢį â
A S
y ch
