{"<s>":0,"<pad>":1,"</s>":2,"<unk>":3,"<mask>":4,"!":5,"\"":6,"#":7,"$":8,"%":9,"&":10,"'":11,"(":12,")":13,"*":14,"+":15,",":16,"-":17,".":18,"/":19,"0":20,"1":21,"2":22,"3":23,"4":24,"5":25,"6":26,"7":27,"8":28,"9":29,":":30,";":31,"<":32,"=":33,">":34,"?":35,"@":36,"A":37,"B":38,"C":39,"D":40,"E":41,"F":42,"G":43,"H":44,"I":45,"J":46,"K":47,"L":48,"M":49,"N":50,"O":51,"P":52,"Q":53,"R":54,"S":55,"T":56,"U":57,"V":58,"W":59,"X":60,"Y":61,"Z":62,"[":63,"\\":64,"]":65,"^":66,"_":67,"`":68,"a":69,"b":70,"c":71,"d":72,"e":73,"f":74,"g":75,"h":76,"i":77,"j":78,"k":79,"l":80,"m":81,"n":82,"o":83,"p":84,"q":85,"r":86,"s":87,"t":88,"u":89,"v":90,"w":91,"x":92,"y":93,"z":94,"{":95,"|":96,"}":97,"~":98,"¡":99,"¢":100,"£":101,"¤":102,"¥":103,"¦":104,"§":105,"¨":106,"©":107,"ª":108,"«":109,"¬":110,"®":111,"¯":112,"°":113,"±":114,"²":115,"³":116,"´":117,"µ":118,"¶":119,"·":120,"¸":121,"¹":122,"º":123,"»":124,"¼":125,"½":126,"¾":127,"¿":128,"À":129,"Á":130,"Â":131,"Ã":132,"Ä":133,"Å":134,"Æ":135,"Ç":136,"È":137,"É":138,"Ê":139,"Ë":140,"Ì":141,"Í":142,"Î":143,"Ï":144,"Ð":145,"Ñ":146,"Ò":147,"Ó":148,"Ô":149,"Õ":150,"Ö":151,"×":152,"Ø":153,"Ù":154,"Ú":155,"Û":156,"Ü":157,"Ý":158,"Þ":159,"ß":160,"à":161,"á":162,"â":163,"ã":164,"ä":165,"å":166,"æ":167,"ç":168,"è":169,"é":170,"ê":171,"ë":172,"ì":173,"í":174,"î":175,"ï":176,"ð":177,"ñ":178,"ò":179,"ó":180,"ô":181,"õ":182,"ö":183,"÷":184,"ø":185,"ù":186,"ú":187,"û":188,"ü":189,"ý":190,"þ":191,"ÿ":192,"Ā":193,"ā":194,"Ă":195,"ă":196,"Ą":197,"ą":198,"Ć":199,"ć":200,"Ĉ":201,"ĉ":202,"Ċ":203,"ċ":204,"Č":205,"č":206,"Ď":207,"ď":208,"Đ":209,"đ":210,"Ē":211,"ē":212,"Ĕ":213,"ĕ":214,"Ė":215,"ė":216,"Ę":217,"ę":218,"Ě":219,"ě":220,"Ĝ":221,"ĝ":222,"Ğ":223,"ğ":224,"Ġ":225,"ġ":226,"Ģ":227,"ģ":228,"Ĥ":229,"ĥ":230,"Ħ":231,"ħ":232,"Ĩ":233,"ĩ":234,"Ī":235,"ī":236,"Ĭ":237,"ĭ":238,"Į":239,"į":240,"İ":241,"ı":242,"Ĳ":243,"ĳ":244,"Ĵ":245,"ĵ":246,"Ķ":247,"ķ":248,"ĸ":249,"Ĺ":250,"ĺ":251,"Ļ":252,"ļ":253,"Ľ":254,"ľ":255,"Ŀ":256,"ŀ":257,"Ł":258,"ł":259,"Ń":260,"en":261,"es":262,"Ġa":263,"Ġd":264,"er":265,"Ġt":266,"Ġc":267,"Ġp":268,"in":269,"Ġs":270,"on":271,"ar":272,"Ġl":273,"Ġde":274,"or":275,"os":276,"as":277,"an":278,"Ġm":279,"ĠĠ":280,"re":281,"ĠÐ":282,"un":283,"Ġe":284,"ti":285,"ci":286,"al":287,"ue":288,"Ð¾":289,"Ġth":290,"te":291,"Ġy":292,"is":293,"ad":294,"Ġf":295,"Ġo":296,"Ðµ":297,"Ġla":298,"om":299,"Ġen":300,"Ġun":301,"ÑĤ":302,"ic":303,"Ġh":304,"Ð°":305,"Ġthe":306,"Ġq":307,"Ġb":308,"Ð¸":309,"ro":310,"it":311,"Ã³":312,"Ġin":313,"at":314,"le":315,"ent":316,"Ġes":317,"Ġan":318,"Ġn":319,"Ġque":320,"Ġw":321,"id":322,"Ġcon":323,"ra":324,"Ð¾Ð":325,"Ñģ":326,"us":327,"ing":328,"Ð½":329,"ÃŃ":330,"Ġel":331,"Ġto":332,"ÑĢ":333,"Ġv":334,"Ã³n":335,"ta":336,"ĠĠĠĠ":337,"ou":338,"im":339,"ol":340,"Ã¡":341,"čĊ":342,"Ġand":343,"Ġse":344,"Ġg":345,"Ġre":346,"ed":347,"am":348,"el":349,"ec":350,"Ġcom":351,"Ġof":352,"il":353,"Ã©":354,"Ġpar":355,"ĠE":356,"ciÃ³n":357,"ĠA":358,"ig":359,"res":360,"ch":361,"tion":362,"ul":363,"Ġal":364,"Ġpro":365,"Ġuna":366,"tr":367,"Ð»":368,"ur":369,"ĠS":370,"do":371,"to":372,"em":373,"ter":374,"ac":375,"ir":376,"ab":377,"ĠT":378,"Ñĥ":379,"Ġlos":380,"et":381,"à¸":382,"Ġpara":383,"ers":384,"Ġsu":385,"ĠC":386,"ĠI":387,"ĠP":388,"de":389,"Ð°Ð":390,"Ġyou":391,"Ñı":392,"Ġfor":393,"um":394,"Ñĭ":395,"iz":396,"pl":397,"ien":398,"Ġis":399,"ut":400,"ĠL":401,"Ġex":402,"if":403,"ÑĮ":404,"od":405,"ay":406,"ve":407,"Ġ-":408,"Ġ1":409,"aciÃ³n":410,"Ġno":411,"ce":412,"ÐµÐ":413,"ado":414,"qu":415,"ib":416,"Ġ\"":417,"cion":418,"tic":419,"Ġdel":420,"Ã¡s":421,"Ġas":422,"Ġ(":423,"ÃŃa":424,"ia":425,"th":426,"lo":427,"Ġlas":428,"Ġim":429,"ĠÐ¿":430,"ĠM":431,"ica":432,"Ñĩ":433,"Ð¸Ð":434,"iv":435,"ente":436,"Ġdes":437,"ĠD":438,"end":439,"ist":440,"Ġus":441,"Ġpue":442,"ant":443,"ient":444,"ma":445,"por":446,"ud":447,"ĠÑģ":448,"ĠÐ²":449,"Ġres":450,"Ġcan":451,"Ġlo":452,"la":453,"per":454,"Ġthat":455,"Ġbe":456,"io":457,"Ġor":458,"Ġest":459,"ĠÐ¸":460,"Ġpor":461,"tiv":462,"idad":463,"he":464,"Ġr":465,"ag":466,"Ġon":467,"Ãº":468,"ÑģÑĤ":469,"Ã±":470,"ĠB":471,"ie":472,"Ġ2":473,"ada":474,"Ġso":475,"Ġcomp":476,"Ġme":477,"Ġper":478,"ier":479,"ly":480,"Ġac":481,"Ġpr":482,"ate":483,"Ġit":484,"ĠEs":485,"Ðº":486,"ith":487,"ĠÐ½":488,"Ġcu":489,"ver":490,"ĠH":491,"Ġj":492,"Ġser":493,"uc":494,"ĠF":495,"cia":496,"ke":497,"ow":498,"ÐµÐ½":499,"Ġcomo":500,"ap":501,"Ð²":502,"Ġwh":503,"tu":504,"ĠmÃ¡s":505,"go":506,"Ġte":507,"ĠR":508,"ion":509,"ĠĠĠĠĠĠĠĠ":510,"for":511,"Ġcons":512,"ip":513,"Ġwith":514,"ĠG":515,"Ð¾Ð²":516,"aj":517,"port":518,"Ġqu":519,"oc":520,"pe":521,"til":522,"Ġha":523,"Ġare":524,"Ġ=":525,"ici":526,"ces":527,"ener":528,"ran":529,"est":530,"Ġle":531,"ere":532,"Ġu":533,"ales":534,"ation":535,"Ġar":536,"ot":537,"ĠÐ¾":538,"ĠÐº":539,"ante":540,"Ñħ":541,"se":542,"Ġpre":543,"Ġpl":544,"Ð¼":545,"ciones":546,"gu":547,"Ġap":548,"ect":549,"--":550,"ment":551,"Ġcre":552,"mo":553,"ich":554,"ÐµÑĤ":555,"ld":556,"and":557,"Ġne":558,"ĠW":559,"op":560,"ĠN":561,"ari":562,"ando":563,"og":564,"Ġ3":565,"cl":566,"gun":567,"ÑĤÐ¾":568,"Ġdis":569,"Ð´":570,"Ġmu":571,"ite":572,"st":573,"que":574,"Ġob":575,"Ġad":576,"Ġyour":577,"ram":578,"ĠU":579,"Ġch":580,"Ġk":581,"ine":582,"Ñİ":583,"Ġfr":584,"ens":585,"Ġpers":586,"cr":587,"Ġab":588,"ï¼":589,"ĠÐ¼":590,"ÐµÑĢ":591,"Ġimport":592,"00":593,"igh":594,"ÑĤÑĮ":595,"bre":596,"ide":597,"Ġam":598,"era":599,"Ġson":600,"ores":601,"Ġdif":602,"ĠThe":603,"Ð¾Ð»":604,"Ġman":605,"Ġpued":606,"ĠEn":607,"Ġfun":608,"Ð°Ð½":609,"Ġst":610,"ä¸":611,"les":612,"ple":613,"ĠO":614,"ge":615,"Ġperson":616,"ĠIn":617,"âĢ":618,"Ġcl":619,"amb":620,"ĠLa":621,"Ð¿":622,"Ġtr":623,"ĠÐ´":624,"cu":625,"Ġinter":626,"ill":627,"'s":628,"ould":629,"``":630,"Ð½Ð¾":631,"Ġem":632,"Ġpuede":633,"ug":634,"Ð¾Ð¼":635,"ome":636,"Ġma":637,"iÃ³n":638,"Ġcont":639,"Ã©n":640,"are":641,"ĠÐ¿ÑĢ":642,"ĠÂ":643,"ts":644,"ero":645,"ido":646,"Ġsi":647,"ble":648,"ĠJ":649,"ados":650,"Ġsol":651,"Ã©s":652,"able":653,"Ġtra":654,"à¹":655,"Ġco":656,"ĠÑ":657,"Ġwe":658,"Ġpos":659,"con":660,"tiliz":661,"tions":662,"Ġent":663,"all":664,"Ġtu":665,"encia":666,"ame":667,"ĠÑĤ":668,"ity":669,"ĠTh":670,"Ġdi":671,"Ð½Ñĭ":672,"fer":673,"Ġdat":674,"form":675,"Ġ4":676,"ida":677,"po":678,"Ġsig":679,"Ġat":680,"za":681,"cul":682,"Ð¾Ð³":683,"iento":684,"ĠV":685,"mente":686,"dad":687,"da":688,"ÑĪ":689,"Ġ*":690,"fic":691,"ore":692,"Ġ5":693,"çļ":694,"Ġrec":695,"çļĦ":696,"Ġby":697,"tos":698,"ï¼Į":699,"ll":700,"Ð°Ðº":701,"Ġutiliz":702,"Ġop":703,"ase":704,"av":705,"our":706,"Ġcar":707,"Ð·":708,"ãĢ":709,"Ġtien":710,"eces":711,"ðŁ":712,"duc":713,"Ġcal":714,"Ġsh":715,"Ġhas":716,"pa":717,"Ã¡n":718,"ĠÑĢ":719,"ÐµÐ»":720,"Ġi":721,"ambi":722,"aliz":723,"Ġhave":724,"Ġpod":725,"ult":726,"enti":727,"ĠEl":728,"Ġmod":729,"Ġz":730,"Ġhab":731,"ass":732,"ber":733,"ure":734,"ues":735,"Ġcol":736,"Ġincl":737,"ight":738,"tem":739,"Ġmed":740,"ys":741,"Ð¾Ð´":742,"ies":743,"ina":744,"Ġcor":745,"Ġresp":746,"Ð¸Ñı":747,"Ġej":748,"ted":749,"Ġro":750,"ĠÐ±":751,"so":752,"und":753,"ne":754,"Ġele":755,"ard":756,"ust":757,"Ġfrom":758,"\",":759,"Ġhac":760,"Ġprog":761,"ĠðŁ":762,"Ġver":763,"Ð³":764,"Ð¸ÑĤ":765,"ech":766,"Ġev":767,"ÑĨ":768,"fici":769,"Ġmo":770,"Ð°Ð»":771,"pres":772,"ord":773,"Ġmay":774,"int":775,"ind":776,"Ð±":777,"ga":778,"Ġvari":779,"ĠUn":780,"ess":781,"Ġesta":782,"ĠÑĩ":783,"rec":784,"ther":785,"ile":786,"ell":787,"me":788,"ach":789,"ico":790,"ular":791,"empl":792,"ks":793,"ÃŃs":794,"Ġsus":795,"ub":796,"ara":797,"tica":798,"co":799,"age":800,"entes":801,"ĠÐ½Ð°":802,"iti":803,"Ġsobre":804,"pos":805,"ÐµÐ¼":806,"uer":807,"ĠY":808,"ally":809,"Ġgener":810,"oci":811,"Ġdo":812,"Ð¾Ð¹":813,"Ġhe":814,"Ġay":815,"olog":816,"Ġneces":817,"peci":818,"Ġnot":819,"out":820,"Ġmuch":821,"Ġund":822,"Ð¾ÑĢ":823,"Ġobj":824,"ten":825,"ÑģÑı":826,"Ġmej":827,"ĠcÃ³":828,"ĠÐ·":829,"Ġentre":830,"Ġpe":831,"ador":832,"Ġalgun":833,"Ġayud":834,"Ġwor":835,"Ġdeb":836,"Ð¸Ð¼":837,"Ð¸Ðµ":838,"ras":839,"Ð¾Ð¶":840,"Ġthis":841,"adas":842,"enci":843,"Ġform":844,"----":845,"Ġsal":846,"Ġval":847,"rend":848,"ible":849,"Ġgo":850,"ĠAl":851,"ps":852,"Ġpueden":853,"yth":854,"Ãºn":855,"ambiÃ©n":856,"king":857,"Ġhay":858,"ater":859,"amente":860,"Ñī":861,"ario":862,"Ġti":863,"act":864,"ĠÑĥ":865,"Ġpa":866,"ÃŃas":867,"Ð°Ð¼":868,"Ġpas":869,"idades":870,"Ð°ÑĤÑĮ":871,"di":872,"Ã±o":873,"Ġejempl":874,"enta":875,"Ġreg":876,"ca":877,"Ġ{":878,"truc":879,"Ġsim":880,"Ð»Ð¸":881,"Ġif":882,"ĠĠĠĠĠ":883,"min":884,"ÐµÐ´":885,"Ġ<":886,"Ġcap":887,"ft":888,"no":889,"ÑģÐº":890,"Ġsin":891,"Ġinv":892,"rac":893,"Ġmejor":894,"tros":895,"Ġgr":896,"gen":897,"Ġdifer":898,"tes":899,"Ġ#":900,"Ð°ÑĤ":901,"gr":902,"ios":903,"Ġtem":904,"Ġtheir":905,"ista":906,"ĠÂ¿":907,"low":908,"ãĢĤ":909,"Ġuse":910,"äº":911,"du":912,"Ġpres":913,"ĠThis":914,"Ġcas":915,"Ġprogram":916,"Ġhel":917,"tro":918,"Ġmore":919,"iste":920,"Ġwas":921,"ĠÃ":922,"par":923,"pend":924,"Ġef":925,"Ġinte":926,"ĠK":927,"Ġcomple":928,"az":929,"Ġ6":930,"Ð¾Ð±":931,"Ð¾Ð½":932,"Ġli":933,"Ġexper":934,"rans":935,"dos":936,"uy":937,"vel":938,"Ġpo":939,"ä»":940,"```":941,"Ġimportante":942,"ual":943,"Ġmis":944,");":945,"Ð¾ÑĤ":946,"ime":947,"tivo":948,"Ġsome":949,"åı":950,"antes":951,"ana":952,"Ð»Ñı":953,"pro":954,"Ġpero":955,"Ġind":956,"ost":957,"Ġexpl":958,"na":959,"iente":960,"ance":961,"ĠÑį":962,"Ġfe":963,"one":964,"tive":965,"erg":966,"77":967,"Ġproces":968,"Ġwhich":969,"Ġhacer":970,"Ð°Ð²":971,"ÑģÑĤÐ²":972,"ura":973,"Ġprov":974,"Ġpol":975,"Ġve":976,"ence":977,"ĠâĢ":978,"Ġplan":979,"quÃŃ":980,"Ġmi":981,"ack":982,"ons":983,"xt":984,"Ġgran":985,"ento":986,"ĠAd":987,"ak":988,"Ġ```":989,"aje":990,"Ġ}":991,"Ġter":992,").":993,"Ġtener":994,"Ġhum":995,"tar":996,"Ġbas":997,"Ġcr":998,"Ð°Ð·":999,"ese":1000,"tas":1001,"aci":1002,"ython":1003,"uev":1004,"ĠPor":1005,"Ã±os":1006,"Ġdeci":1007,"Ġejemplo":1008,"red":1009,"cep":1010,"Ð¸Ð½":1011,"ice":1012,"Ġcada":1013,"ĠRe":1014,"Ġlib":1015,"ace":1016,"ong":1017,"Ġmen":1018,"Ġtrans":1019,"uego":1020,"Ġav":1021,"Ġten":1022,"Ġbu":1023,"Ġother":1024,"Ġbut":1025,"tura":1026,"ider":1027,"Ġsign":1028,"cip":1029,"Ġmodel":1030,"ial":1031,"jo":1032,"Ġher":1033,"des":1034,"ĠÐ½Ðµ":1035,"edad":1036,"Ġfin":1037,"car":1038,"rol":1039,"ystem":1040,"ata":1041,"ĠIt":1042,"Ġsuch":1043,"Ð¾Ð»ÑĮ":1044,"Ð¶":1045,"iendo":1046,"Ġsoci":1047,"Ġwill":1048,"ivers":1049,"Ġforma":1050,"Ġtiem":1051,"Ġca":1052,"Ð¾Ñģ":1053,"we":1054,"ena":1055,"ita":1056,"pre":1057,"ĠAn":1058,"Ġra":1059,"igo":1060,"Ġinform":1061,"lic":1062,"Ġins":1063,"ction":1064,"ph":1065,"Ġll":1066,"ÐµÐº":1067,"crip":1068,"Ġdef":1069,"ene":1070,"Ġhelp":1071,"Ġpat":1072,"Ġ[":1073,"Ġaut":1074,"ä½":1075,"ito":1076,"ano":1077,"Ã©r":1078,"Ġrela":1079,"plica":1080,"ÑĤÐ¾ÑĢ":1081,"Ġmar":1082,"Ġeste":1083,"Ġer":1084,"ory":1085,"Ġrequ":1086,"ĠDe":1087,"Ġthey":1088,"der":1089,"Ġdatos":1090,"ĠtambiÃ©n":1091,"ĠÃ©":1092,"baj":1093,"itar":1094,"Ġtiempo":1095,"Ã¤":1096,"ĠSe":1097,"Ġnum":1098,"ive":1099,"Ġayudar":1100,"ical":1101,"ign":1102,"Ġdata":1103,"ĠSi":1104,"Ġamb":1105,"ÐµÐ¹":1106,"Ã¼":1107,"Ġles":1108,"Ġinf":1109,"her":1110,"Ġder":1111,"Ġall":1112,"Ġperm":1113,"Ġprin":1114,"tra":1115,"Ġmin":1116,"Ġcam":1117,"Ð¸Ð²":1118,"br":1119,"pec":1120,"Ġ+":1121,"Ġequ":1122,"Ġ10":1123,"pr":1124,"ting":1125,"Ġ8":1126,"lec":1127,"Ġprim":1128,"Ð¾Ð³Ð¾":1129,"Â¿":1130,"Ġalso":1131,"ticas":1132,"Ġaprend":1133,"tain":1134,"ÑĢÑĥ":1135,"..":1136,"Ġdon":1137,"Ġvida":1138,"Ð¸Ðº":1139,"cal":1140,"Ġhist":1141,"ary":1142,"Ġbo":1143,"ific":1144,"Ġpodr":1145,"Ġaf":1146,"den":1147,"ument":1148,"crib":1149,"uz":1150,"tiva":1151,"Ġ0":1152,"icos":1153,"Ġdos":1154,"now":1155,"Ġwould":1156,"mos":1157,"Ġproduc":1158,"Ġlike":1159,"//":1160,"ja":1161,"Ġet":1162,"Ð¹":1163,"bar":1164,"Ġpuedes":1165,"æĪ":1166,"Ġtrabaj":1167,"ĠestÃ¡":1168,"Ġnew":1169,"æľ":1170,"Ġcomm":1171,"Ġdie":1172,"ato":1173,"ok":1174,"),":1175,"Ġproble":1176,"pi":1177,"tur":1178,"Ġya":1179,"ãģ":1180,"ans":1181,"ĠÐ¾Ð±":1182,"hat":1183,"Ġresult":1184,"lar":1185,"ora":1186,"Ġcos":1187,"up":1188,"Ġ'":1189,"lig":1190,"Ġtus":1191,"atur":1192,"Ġup":1193,"Ġgra":1194,"Ġused":1195,"Ġany":1196,"icas":1197,"ty":1198,"Ã¨":1199,"Ġdesar":1200,"ĠCon":1201,"Ġneed":1202,"åħ":1203,"ck":1204,"fr":1205,"ĠĠĠ":1206,"Ġdur":1207,"arn":1208,"Ġweb":1209,"ones":1210,"tir":1211,"Ġ20":1212,"ĠAs":1213,"Ð¸Ñĩ":1214,"ors":1215,"ĠÐ°":1216,"cre":1217,"las":1218,"pen":1219,"almente":1220,"use":1221,"Ġserv":1222,"nolog":1223,"Ġexam":1224,"Ġabout":1225,"Ġvis":1226,"Ð¸ÑĤÑĮ":1227,"Ġmuy":1228,"iones":1229,"gan":1230,"art":1231,"Ġconsider":1232,"lev":1233,"Ð¸Ð¸":1234,"__":1235,"Ġenerg":1236,"Ġ7":1237,"ĠÐ»":1238,"Ġotros":1239,"com":1240,"trar":1241,"ix":1242,"ĠÐ³":1243,"Ġlen":1244,"Ġtiene":1245,"Ġmas":1246,"Ġout":1247,"Ġits":1248,"zar":1249,"tico":1250,"Ġta":1251,"gar":1252,"ior":1253,"ms":1254,"Ġtom":1255,"Ġconoci":1256,"Ġpregun":1257,"Ġthere":1258,"ang":1259,"anto":1260,"undo":1261,"ilidad":1262,"acter":1263,"à¸²":1264,"Ġcould":1265,"ĠÐ²Ñĭ":1266,"Ð¸Ð·":1267,"Ġrecom":1268,"La":1269,"ware":1270,"oria":1271,"Ð°Ñģ":1272,"Ġsystem":1273,"Ġid":1274,"ino":1275,"esti":1276,"Ġbet":1277,"forma":1278,"Ð¾Ð·":1279,"Ġtime":1280,"Ġke":1281,"Ð°ÑĢ":1282,"Ġprof":1283,"ating":1284,"Ġknow":1285,"los":1286,"ven":1287,"Ġusing":1288,"tivos":1289,"ations":1290,"als":1291,"Ġ19":1292,"istema":1293,"Ġdist":1294,"Ġdiffer":1295,"Ð¾ÑģÑĤ":1296,"emos":1297,"Ãºm":1298,"digo":1299,"ire":1300,"Ġide":1301,"eros":1302,"Ġmanera":1303,"mas":1304,"wn":1305,"ola":1306,"Ġhasta":1307,"Ġtip":1308,"Ð¸Ñħ":1309,"ĠNo":1310,"ĠLos":1311,"ĠÐ¾ÑĤ":1312,"Ġprincip":1313,"Ġconf":1314,"amiento":1315,"Ġspeci":1316,"Ð¸Ð¹":1317,"ry":1318,"ton":1319,"ĠÑı":1320,"ĠYou":1321,"Ġhow":1322,"ates":1323,"Ġthem":1324,"Ġseg":1325,"ÐµÐ½Ð¸Ñı":1326,"Ġpop":1327,"uel":1328,"Ãºs":1329,"Ġcrear":1330,"\".":1331,"()":1332,"Ġda":1333,"cio":1334,"Ġfil":1335,"Ġlar":1336,"ÑĥÑĩ":1337,"ctr":1338,"Ġpersonas":1339,"das":1340,"tras":1341,"pon":1342,"bo":1343,"bol":1344,"erv":1345,"Ġsub":1346,"ĠÃ¡":1347,"Ġau":1348,"Ġalg":1349,"tern":1350,"put":1351,"uro":1352,"Ġover":1353,"Ġone":1354,"Ġtec":1355,"Ġmundo":1356,"oy":1357,"amos":1358,"ĠlÃŃ":1359,"Ġcur":1360,"ĠAr":1361,"Ġcual":1362,"Ãł":1363,"Qu":1364,"à¸Ļ":1365,"ko":1366,"ĠPython":1367,"ugar":1368,"ĠÑĩÑĤÐ¾":1369,"get":1370,"å¤":1371,"Ġbr":1372,"ientes":1373,"Ġsistema":1374,"ish":1375,"plic":1376,"ful":1377,"Ġni":1378,"'t":1379,"åĬ":1380,"ĠcÃ³digo":1381,"ifica":1382,"Ġbus":1383,"iel":1384,"Ġmake":1385,"Ġinto":1386,"Ġelement":1387,"Ð¾Ðº":1388,"ĠinformaciÃ³n":1389,"Ġcomun":1390,"ated":1391,"its":1392,"Ġdiferentes":1393,"ÑĦ":1394,"ents":1395,"che":1396,"Ġty":1397,"ĠnÃºm":1398,"tor":1399,"çĶ":1400,"ÃŃcul":1401,"ĠÐµ":1402,"ros":1403,"Ġpot":1404,"adores":1405,"Ġespeci":1406,"**":1407,"El":1408,"Ð¸Ñģ":1409,"ize":1410,"Ġdirec":1411,"æĺ":1412,"aciones":1413,"è¿":1414,"Ġx":1415,"Ġmat":1416,"Ġactu":1417,"Ġway":1418,"ale":1419,"emÃ¡s":1420,"ĠcÃ³mo":1421,"cript":1422,"alizar":1423,"bl":1424,"è¯":1425,"ĠPro":1426,"Ġcode":1427,"Ġ|":1428,"Ġsta":1429,"ung":1430,"led":1431,"ugh":1432,"Ġcuenta":1433,"Ġmy":1434,"paÃ±":1435,"Ġexperien":1436,"olu":1437,"ĠÐ¸Ð·":1438,"Ġstr":1439,"Ġprote":1440,"uest":1441,"Ġreal":1442,"lu":1443,"å®":1444,"Ġint":1445,"Ġnuev":1446,"ÑİÑĤ":1447,"tre":1448,"endo":1449,"Ġref":1450,"ep":1451,"Ð¾ÑĤÐ¾ÑĢ":1452,"ild":1453,"åĪ":1454,"Ð°Ð´":1455,"ias":1456,"Ġmet":1457,"ĠfunciÃ³n":1458,"Ð½Ð¾ÑģÑĤ":1459,"Ġincluy":1460,"ÐµÑģ":1461,"Ġfunction":1462,"ĠCh":1463,"cional":1464,"Ġobje":1465,"Ġsa":1466,"rate":1467,"ÃŃn":1468,"be":1469,"ĠCom":1470,"ques":1471,"encias":1472,"20":1473,"Ġgu":1474,"ĠHow":1475,"à¸²à¸":1476,"xim":1477,"ĠÃº":1478,"inu":1479,"ain":1480,"Ġein":1481,"ombre":1482,"Ġsegu":1483,"(\"":1484,"Ġcer":1485,"Ð½Ð°":1486,"gua":1487,"åĲ":1488,"19":1489,"Ġfo":1490,"Ġfact":1491,"Ġsuper":1492,"Ġmon":1493,"ick":1494,"Ã§":1495,"Ġ9":1496,"):":1497,"Ñĸ":1498,"Ġdepend":1499,"Ġalgunos":1500,"ecu":1501,"ff":1502,"orm":1503,"ĠDes":1504,"ced":1505,"cias":1506,"ables":1507,"Ġsup":1508,"Ġ$":1509,"Ġdar":1510,"Ġmater":1511,"ings":1512,"arios":1513,"cur":1514,"Ð½ÑĭÑħ":1515,"Ġbien":1516,"Ġsolo":1517,"Ġentr":1518,"ĠIf":1519,"Ġarti":1520,"Ġlim":1521,"iar":1522,"eno":1523,"ree":1524,"Ġesto":1525,"ĠSin":1526,"Ġinst":1527,"trib":1528,"gra":1529,"Ġencon":1530,"Ġembar":1531,"--------":1532,"iment":1533,"Ġmayor":1534,"Ã¶":1535,"Ġnatur":1536,"Ġexample":1537,"Ġpun":1538,"ulti":1539,"Ġsigu":1540,"itu":1541,"vers":1542,"Ġhis":1543,"Ġtodo":1544,"ely":1545,"ivid":1546,"iÃ³":1547,"ze":1548,"ÃŃfic":1549,"Ġimp":1550,"Ġpersona":1551,"åľ":1552,"ĠEsto":1553,"Ġimportant":1554,"ger":1555,"je":1556,"arse":1557,"åĴ":1558,"Ġdem":1559,"ĠÐ¼Ð¾Ð¶":1560,"Ġcontrol":1561,"Ã¡l":1562,"Ġoper":1563,"tal":1564,"Ġlengu":1565,"ves":1566,"ade":1567,"ture":1568,"Ġsab":1569,"Ð°Ð¶":1570,"velop":1571,"ba":1572,"Ġvol":1573,"Ġvez":1574,"cer":1575,"ever":1576,"ĠZ":1577,"Ġ\\":1578,"Ġcent":1579,"Ġpel":1580,"ject":1581,"ĠÐĴ":1582,"Ġuno":1583,"miento":1584,"Ġsea":1585,"Ġusu":1586,"Ġzu":1587,"Ġsp":1588,"Ġwork":1589,"Ġembargo":1590,"Ġluz":1591,"ail":1592,"wo":1593,"roll":1594,"ä¸Ģ":1595,"ose":1596,"Ġmus":1597,"ĠAdemÃ¡s":1598,"ange":1599,"Ġadd":1600,"Ġthese":1601,"ob":1602,"ins":1603,"ÃŃan":1604,"æĺ¯":1605,"åĴĮ":1606,"Ġget":1607,"Ġshould":1608,"Ġum":1609,"ä¹":1610,"ast":1611,"Ġwhen":1612,"ĠĠĠĠĠĠĠĠĠĠĠĠ":1613,"Ġfol":1614,"atu":1615,"imiento":1616,"ãĢģ":1617,"Ð¸ÑĢ":1618,"Ġpopular":1619,"ws":1620,"Ġcuando":1621,"Ġing":1622,"ĠquÃ©":1623,"Ġlearn":1624,"Ġexist":1625,"Ġestos":1626,"Ð½ÑĭÐµ":1627,"ition":1628,"oug":1629,"Ġtienes":1630,"Ġplay":1631,"ht":1632,"ars":1633,"Ð¸Ð»":1634,"Ġquier":1635,"Ġecon":1636,"à¹Ī":1637,"ween":1638,"ied":1639,"ĠEx":1640,"ĠÐºÐ°Ðº":1641,"Ġlugar":1642,"Ġtecnolog":1643,"Ġeach":1644,"Ġprint":1645,"Ġwhat":1646,"tim":1647,"cil":1648,"ĠAm":1649,"ian":1650,"Ġbec":1651,"ender":1652,"ientos":1653,"iciÃ³n":1654,"In":1655,"ĠÐºÐ¾ÑĤÐ¾ÑĢ":1656,"ÐµÐ»ÑĮ":1657,"Ġprocess":1658,"Ġbetween":1659,"Ð¾Ð¿":1660,"ecto":1661,"Ġques":1662,"ava":1663,"æĸ":1664,"Ġtodos":1665,"Ġalgo":1666,"turn":1667,"ĠaÃ±os":1668,"ink":1669,"quier":1670,"The":1671,"è®":1672,"Ġfue":1673,"Ġpropor":1674,"vent":1675,"cess":1676,"Ð°Ð¹":1677,"Ġwho":1678,"Ġactiv":1679,"Ñĳ":1680,"ex":1681,"Ġinforma":1682,"Ġlist":1683,"Ġusar":1684,"ficial":1685,"Ġ`":1686,"ĠLe":1687,"hr":1688,"ous":1689,"Ð°ÐµÑĤ":1690,"Ġanim":1691,"urs":1692,"Ġce":1693,"Ġconst":1694,"ftware":1695,"Ġdifferent":1696,"ude":1697,"Ġci":1698,"idos":1699,"ament":1700,"ÑĥÑĤ":1701,"ages":1702,"ĠÐ´Ð»Ñı":1703,"amil":1704,"Ġdesde":1705,"ĠÂ¡":1706,"Ġdise":1707,"à¹Ģ":1708,"Ġhuman":1709,"Ġsur":1710,"à¸Ń":1711,"irst":1712,"ientras":1713,"ĠÐ±Ñĭ":1714,"000":1715,"ax":1716,"tidad":1717,"ĠFor":1718,"ĠÑĢÐ°Ð·":1719,"ä»¥":1720,"ÑģÐ¿":1721,"Ġge":1722,"ĠasÃŃ":1723,"ĠÑĤÐ°Ðº":1724,"Ġ**":1725,"gos":1726,"ann":1727,"ÐµÑģÐº":1728,"rough":1729,"Ġhigh":1730,"ÐµÐ½Ð¸Ðµ":1731,"arch":1732,"Ġlet":1733,"Ð½Ð¾Ð¹":1734,"ramient":1735,"Ġcalcul":1736,"Ġgeneral":1737,"Ġph":1738,"Ġdeter":1739,"Ġna":1740,"Ġutiliza":1741,"Ġgro":1742,"Ġhor":1743,"ilidades":1744,"ĠPara":1745,"wor":1746,"ĠX":1747,"Ġthan":1748,"Ġvers":1749,"Ġsignifica":1750,"En":1751,"Ġcomb":1752,"Ġprop":1753,"Ġpub":1754,"Ġmov":1755,"Ġil":1756,"ĠWh":1757,"ities":1758,"ç»":1759,"Ġherramient":1760,"Ġdevelop":1761,"ples":1762,"ivo":1763,"ectos":1764,"oma":1765,"itos":1766,"Ġelectr":1767,"ancia":1768,"Ġset":1769,"Ġreturn":1770,"ilar":1771,"ĠÑģÐ²":1772,"ges":1773,"Ġmany":1774,"Ġpal":1775,"Ð°Ð»ÑĮ":1776,"Ġmejorar":1777,"Ġllam":1778,"gre":1779,"zo":1780,"ik":1781,"Ġconcep":1782,"à¹Ģà¸":1783,"ĠmÃ©":1784,"ĠprogramaciÃ³n":1785,"can":1786,"Ġ//":1787,"Ġmulti":1788,"Ġtanto":1789,"Ġpes":1790,"Ã³g":1791,"ÐµÐ³":1792,"uesta":1793,"cionar":1794,"ĠÐ¿Ð¾":1795,"Ġestud":1796,"ople":1797,"][":1798,"lti":1799,"ticos":1800,"sa":1801,"uch":1802,"Ġcul":1803,"Ġcreate":1804,"Ġsolu":1805,"Ġfind":1806,"Ġgame":1807,"ĠÑĦ":1808,"Ġalgor":1809,"Ġlan":1810,"Ġcorrec":1811,"ĠĠĠĠĠĠ":1812,"Ġmem":1813,"ise":1814,"Ġhan":1815,"uesto":1816,"Ġdurante":1817,"Ã£":1818,"Ġsenti":1819,"Ġvide":1820,"Ġcompr":1821,"Ġtech":1822,"Ġtwo":1823,"ĠEsta":1824,"Ġwhere":1825,"Ġlista":1826,"ress":1827,"ÑĭÐµ":1828,"=\"":1829,"Ġotro":1830,"Ġbl":1831,"ĠHowever":1832,"Ġparte":1833,"ĠaquÃŃ":1834,"Ġunivers":1835,"Ġaprender":1836,"tand":1837,"va":1838,"Ġdoc":1839,"Ġmag":1840,"ĠestÃ¡n":1841,"Ġthen":1842,"ÑĥÑİ":1843,"à¹ī":1844,"ĠÐŁ":1845,"ĠÑģÑĤ":1846,"Ġcondi":1847,"Ġpuedo":1848,"Ġhistoria":1849,"eg":1850,"elf":1851,"Ġsoftware":1852,"sist":1853,"Ġespec":1854,"Ġwhile":1855,"cuent":1856,"Ġnos":1857,"rit":1858,"Ġpoder":1859,"ĠdÃŃa":1860,"ines":1861,"Ġutilizar":1862,"Ġdesarroll":1863,"tribu":1864,"Ã³m":1865,"7777":1866,"ĠlÃŃne":1867,"ĠnÃºmero":1868,"arte":1869,"Ġens":1870,"Ð°ÑĨ":1871,"ility":1872,"cir":1873,"Ġarch":1874,"idas":1875,"Ġist":1876,"Ġencontrar":1877,"Ġtas":1878,"Ġmate":1879,"Ġmientras":1880,"fica":1881,"Ġblo":1882,"ital":1883,"udad":1884,"ern":1885,"Ġtrad":1886,"Ġmuchos":1887,"Es":1888,"Ġthrough":1889,"Ġfuer":1890,"Ġrepres":1891,"tical":1892,"Ġinclud":1893,"Ð°ÑģÑĤ":1894,"Ġlenguaje":1895,"Ġcambi":1896,"ustr":1897,"Ã¡c":1898,"Ġcantidad":1899,"Ġorgan":1900,"Ġprovide":1901,"Ġpoc":1902,"ource":1903,"Ġtipo":1904,"Ġfu":1905,"ower":1906,"ics":1907,"Ð°Ð¿":1908,"Ġposs":1909,"Ġrespon":1910,"Ġproy":1911,"Ġtienen":1912,"cel":1913,"Ð°Ð±":1914,"ĠEste":1915,"ĠÑįÑĤÐ¾":1916,"acidad":1917,"Ġbar":1918,"Ġalgunas":1919,"åı¯":1920,"pu":1921,"ĠAI":1922,"Ġcaracter":1923,"Ġenv":1924,"ĠÑģÐ»":1925,"Ġpeople":1926,"Ġdonde":1927,"Ġagua":1928,"Ġsk":1929,"Ġfamil":1930,"ĠÐ¶":1931,"Ġencuent":1932,"ula":1933,"Ġpreci":1934,"ices":1935,"',":1936,"Ġcir":1937,"Ġmost":1938,"tamente":1939,"Ġmismo":1940,"Ã£o":1941,"Ġste":1942,"Ð¾Ð²Ð°Ð½":1943,"Ð½ÑĭÐ¼":1944,"Ð¸ÑĩÐµÑģÐº":1945,"åĽ":1946,"ĥ½":1947,"Ġmom":1948,"ions":1949,"Ð°Ñı":1950,"Ã©c":1951,"Ġdebe":1952,"Ġidenti":1953,"ement":1954,"ters":1955,"Ġbeen":1956,"Ġtrav":1957,"æĪĳ":1958,"ÐµÑģÑĤÐ²":1959,"Ġindivid":1960,"ÅĤ":1961,"Ġdefin":1962,"ona":1963,"round":1964,"ĠGo":1965,"Ġobject":1966,"Ġsitu":1967,"Ġposible":1968,"Ã³r":1969,"erstand":1970,"Ġuso":1971,"Ġhand":1972,"ÐµÐ²":1973,"Ġtemper":1974,"reat":1975,"ciÃ³":1976,"Ġho":1977,"ets":1978,"ĠUna":1979,"uedes":1980,"ĠLas":1981,"Ġgood":1982,"Ġchar":1983,"ĠfÃŃs":1984,"jos":1985,"Ġlle":1986,"ases":1987,"Ġcualquier":1988,"ĠMar":1989,"pero":1990,"Ġteor":1991,"Ġpeque":1992,"ĠlÃŃnea":1993,"ĠtravÃ©s":1994,"mÃ¡":1995,"Ġsm":1996,"Ġmant":1997,"Ð½Ð¾Ð³Ð¾":1998,"Ġredu":1999,"Ġparti":2000,"Ð¾Ð»ÑĮÐ·":2001,"Ġinformation":2002,"sh":2003,"ono":2004,"ĠHere":2005,"ĠenergÃŃa":2006,"çĶ¨":2007,"Ġpalab":2008,"Ġciudad":2009,"ĠAquÃŃ":2010,"Ġresum":2011,"Ġinteres":2012,"Ġmain":2013,"Ġlong":2014,"istem":2015,"Ġwant":2016,"Ġequip":2017,"Ġaplic":2018,"Ġfut":2019,"âĢĻ":2020,"line":2021,"ĠbÃ¡s":2022,"ĠÐ¿ÑĢÐ¾":2023,"Ġintelig":2024,"Ġed":2025,"Ġorig":2026,".\"":2027,"unt":2028,"Ġcompar":2029,"plement":2030,"åº":2031,"Ġden":2032,"Ġwell":2033,"ody":2034,"Ġdecis":2035,"ĠOpen":2036,"Ġcolor":2037,"Ġunderstand":2038,"Ġnumber":2039,"aba":2040,"Ġotras":2041,"cent":2042,"erci":2043,"ort":2044,"Ġred":2045,"Ġdese":2046,"Ġfollow":2047,"wer":2048,"Ġjug":2049,"Ġworld":2050,"any":2051,"Ġinc":2052,"Ġspecific":2053,"Ġmil":2054,"ĠmÃºs":2055,"empre":2056,"Ġpi":2057,"ĠJava":2058,"Ġcaus":2059,"ds":2060,"Ã²":2061,"atura":2062,"Ġclass":2063,"ĠpaÃŃs":2064,"Ġkey":2065,"ough":2066,"lich":2067,"arÃŃa":2068,"rame":2069,"Ð¿ÑĢ":2070,"Ġhace":2071,"ibles":2072,"ĠÃ©s":2073,"Ġbase":2074,"...":2075,"cle":2076,"ÐµÑģÑĤ":2077,"Ġjuego":2078,"Ġsimple":2079,"xto":2080,"Ġorden":2081,"iere":2082,"10":2083,"++":2084,"li":2085,"èĥ½":2086,"Ġaplica":2087,"ĠÐŀ":2088,"inar":2089,"Ġantes":2090,"ĠTambiÃ©n":2091,"laro":2092,"uir":2093,"way":2094,"Ġfirst":2095,"Ġpart":2096,"Ġprodu":2097,"ÐºÐ¸":2098,"ajes":2099,"ments":2100,"Ġfile":2101,"Ġescrib":2102,"uta":2103,"Ġâ":2104,"ÐµÑĩ":2105,"omo":2106,"Ġva":2107,"Ð½ÑĭÐ¹":2108,"Ġhabilidades":2109,"ĠTo":2110,"iew":2111,"Ġempres":2112,"Ġcaso":2113,"Ġche":2114,"ÐµÐ·":2115,"Ġopen":2116,"Ġ/":2117,"ivel":2118,"jar":2119,"Ø§":2120,"Ġllev":2121,"own":2122,"Ġdesarrol":2123,"ator":2124,"Ġpersonal":2125,"à¸ģ":2126,"Ġmuchas":2127,"Ġprovid":2128,"Ġpregunta":2129,"Ġvel":2130,"ĠCre":2131,"ym":2132,"Â»":2133,"åŃ":2134,"uras":2135,"ĠBe":2136,"ĠÐĿ":2137,"Ġeta":2138,"Ġpoco":2139,"indo":2140,"Ġexpres":2141,"Ġrespuesta":2142,"Ġdecir":2143,"Ġlangu":2144,"ĠmatemÃ¡":2145,"ÃŃm":2146,"ĠpodrÃŃa":2147,"Ġartificial":2148,"Ġpartic":2149,"://":2150,"tener":2151,"Ġestruc":2152,"Ġtrabajo":2153,"Ġtyp":2154,"tis":2155,"ats":2156,"âĢĿ":2157,"fect":2158,"una":2159,"Ġestas":2160,"istemas":2161,"tud":2162,"Ġaj":2163,"Ð¸ÑģÑĤ":2164,"Ġsee":2165,"Ġrealizar":2166,"ece":2167,"ĠPar":2168,"ierra":2169,"Ġayudarte":2170,"Ġtake":2171,"Ġir":2172,"Ã¡g":2173,"Ġminut":2174,"No":2175,"cas":2176,"col":2177,"Ġmol":2178,"ÑĥÐ´":2179,"Ġdesign":2180,"Ġcontinu":2181,"Ġvalor":2182,"Claro":2183,"Ġdr":2184,"dition":2185,"æľī":2186,"Ġfl":2187,"ature":2188,"ÐµÐ½ÑĤ":2189,"ĠfÃ¡":2190,"icaciÃ³n":2191,"py":2192,"Ġwater":2193,"Ġjust":2194,"fore":2195,"ĠÂ«":2196,"Ġdig":2197,"omb":2198,"Ġsel":2199,"Ġobs":2200,"Ġsiempre":2201,"ĠÐ¼Ð¾Ð¶ÐµÑĤ":2202,"hod":2203,"ique":2204,"Ġotra":2205,"ites":2206,"ĠPr":2207,"Ġestar":2208,"ĠÐ¸ÑģÐ¿":2209,"itor":2210,"Ġwere":2211,"Ġselec":2212,"ĠWe":2213,"Ġemo":2214,"itas":2215,"Ġinde":2216,"ÑĢÑĥÐ³":2217,"val":2218,"unque":2219,"alth":2220,"Ġproper":2221,"Ġonly":2222,"Ġtext":2223,"Ġleg":2224,"Ġintegr":2225,"Ġsegur":2226,"à¸£":2227,"ional":2228,"ajas":2229,"Ġsalud":2230,"ĠÑįÑĤ":2231,"Ġown":2232,"ĠÐ¿Ð¾Ð´":2233,"ĠtecnologÃŃa":2234,"Ġdiv":2235,"Ġgus":2236,"ÑĥÑĢ":2237,"ĠHe":2238,"Ġbuild":2239,"arth":2240,"illa":2241,"Ġampl":2242,"ential":2243,"Ġsocial":2244,"Ġdom":2245,"Ġmes":2246,"Ġbel":2247,"Ġallow":2248,"ãĤ":2249,"Ġans":2250,"ray":2251,"Ġimag":2252,"Ġrespons":2253,"Ġelementos":2254,"åľ¨":2255,"sistant":2256,"Ġsc":2257,"Ġ12":2258,"ĠÐ¸Ð»Ð¸":2259,"Ġarg":2260,"ĠÐ¸Ð½":2261,"tivas":2262,"ket":2263,"ner":2264,"Ġsido":2265,"ety":2266,"Ġdescu":2267,"Ġpublic":2268,"ĠÑħ":2269,"Ġpower":2270,"rag":2271,"Ġrev":2272,"ife":2273,"ĠMe":2274,"ĠNe":2275,"Ġmit":2276,"Ġtry":2277,"Ġrecomend":2278,"ww":2279,"Ġback":2280,"table":2281,"Ġdesarrollo":2282,"yn":2283,"arm":2284,"Ġpriv":2285,"Ġappro":2286,"ï¼ļ":2287,"vo":2288,"è§":2289,"inaciÃ³n":2290,"Ġprob":2291,"Ġincluding":2292,"Ð¾Ñĩ":2293,"iter":2294,"Ġnivel":2295,"Ġconsum":2296,"Ġsistemas":2297,"ĠespecÃŃfic":2298,"Ġdu":2299,"ÐµÐµ":2300,"ciona":2301,"Ġresumen":2302,"ho":2303,"aria":2304,"Ð¸Ñİ":2305,"Ġviv":2306,"Ġrun":2307,"Ġsimilar":2308,"ĠpolÃŃ":2309,"Ġveloci":2310,"Â¡":2311,"ÄĻ":2312,"Ġsolar":2313,"Ġrecurs":2314,"Ã¡m":2315,"Ġreci":2316,"ĠâĢ¢":2317,"Ġsw":2318,"els":2319,"Ġconse":2320,"Ġmodelo":2321,"jas":2322,"ensiÃ³n":2323,"ä½ł":2324,"æĹ":2325,"Ġos":2326,"Ġprac":2327,"ĠÐ¡":2328,"icios":2329,"Ġerr":2330,"self":2331,"Ġera":2332,"Ġvo":2333,"Ġcapacidad":2334,"tps":2335,"text":2336,"lease":2337,"Ã±a":2338,"Ġmucho":2339,"Ġidea":2340,"Ġdetermin":2341,"ĠBr":2342,"Ġmethod":2343,"ĠteorÃŃa":2344,"âł":2345,"Ġmill":2346,"ĠÐ¿Ð¾Ð»":2347,"Ġperform":2348,"ĠÃł":2349,"Ġproblemas":2350,"Ġvideo":2351,"ĠmÃºsica":2352,"PI":2353,"Ġnombre":2354,"etos":2355,"eras":2356,"ÑĤÐµ":2357,"icar":2358,"Ġhad":2359,"ĠPl":2360,"ÐµÐ±":2361,"Ġinvol":2362,"fo":2363,"å°":2364,"Ġfa":2365,"entar":2366,"ama":2367,"ector":2368,"Ġconten":2369,"Ġinflu":2370,"Ð°ÑĪ":2371,"ML":2372,"ving":2373,"å¯":2374,"Ð°Ð¼Ð¸":2375,"éĢ":2376,"Ġlado":2377,"ĠÐ¸ÑģÐ¿Ð¾Ð»ÑĮÐ·":2378,"ÙĦ":2379,"âĸ":2380,"cid":2381,"ĠTe":2382,"Ġfund":2383,"js":2384,"Ġpass":2385,"Ã³s":2386,"Ġescr":2387,"Ġimplement":2388,"Ġseguridad":2389,"Ġtur":2390,"Ġesp":2391,"ĠAlgun":2392,"ĠmÃ©to":2393,"Cu":2394,"Ġmer":2395,"ĠĠĠĠĠĠĠĠĠĠĠĠĠĠĠĠ":2396,"Ġtal":2397,"Ġsue":2398,"Ġmal":2399,"ply":2400,"Ġdescrib":2401,"Ġjun":2402,"oca":2403,"itec":2404,"ren":2405,"Ġpermite":2406,"Ġprofes":2407,"Ġsmall":2408,"å¦":2409,"Ġ:":2410,"QuÃ©":2411,"à¸Ńà¸":2412,"'m":2413,"Ġbre":2414,"ĠCol":2415,"Ġapro":2416,"Ġcomplex":2417,"ĠâĢĶ":2418,"ved":2419,"Ġhi":2420,"ä¸į":2421,"ÃŃsticas":2422,"ĠÃºtil":2423,"ert":2424,"inas":2425,"Ġoff":2426,"Ġdispos":2427,"Ġmaterial":2428,"\")":2429,"Ġday":2430,"Ġtare":2431,"ÐµÑĪ":2432,"Ġincre":2433,"Ġtor":2434,"Ġayuda":2435,"Ġinvesti":2436,"50":2437,"ĠÃºn":2438,"Ġever":2439,"itch":2440,"Ġbeing":2441,"ogle":2442,"äºº":2443,"\":":2444,"Ġconj":2445,"Ð¸Ð´":2446,"Ġcalidad":2447,"Ġtomar":2448,"Ġeconom":2449,"fe":2450,"terna":2451,"Ġext":2452,"Ġmedi":2453,"Ġorigin":2454,"Ġale":2455,"erte":2456,"ĠEspero":2457,"Ġtrain":2458,"Ġmedio":2459,"Ġsignific":2460,"eng":2461,"ĠÐ´ÑĢÑĥÐ³":2462,"Ġentren":2463,"Ġsiguiente":2464,"Ġdin":2465,"Ġdown":2466,"ĠÐļ":2467,"ĠFin":2468,"Ð¾Ð²Ð°ÑĤÑĮ":2469,"Ġclim":2470,"Ġmenos":2471,"Ã©cn":2472,"Ġaplicaciones":2473,"'re":2474,"Ġtodas":2475,"Ġintern":2476,"Ġetc":2477,"Ġlanguage":2478,"cado":2479,"ä¾":2480,"æ³":2481,"Ġsens":2482,"ond":2483,"iten":2484,"Ġnuest":2485,"ÐµÐºÑĤ":2486,"rateg":2487,"ĠÃºlti":2488,"Ġinteligencia":2489,"man":2490,"Ġhech":2491,"à¸µ":2492,"ĠWhat":2493,"Ġadecu":2494,"Hola":2495,"è¦":2496,"ÐºÐ°":2497,"Ġdoes":2498,"Ġactual":2499,"ml":2500,"ulo":2501,"ĠÐ¿ÐµÑĢ":2502,"ĠprÃ¡c":2503,"Ġnega":2504,"Ġadv":2505,"Ð¸ÑĤÐµ":2506,"Ġavan":2507,"ĠpelÃŃcul":2508,"Ġeng":2509,"ĠSch":2510,"Ġrad":2511,"Ġlead":2512,"Ġinclude":2513,"Ã¼r":2514,"Ġorganiz":2515,"ense":2516,"iencia":2517,"ĠÐ¿Ð¾Ð¼":2518,"Ġobtener":2519,"Ġlearning":2520,"Ġdev":2521,"ath":2522,"Ġrefer":2523,"ÐºÑĥ":2524,"ources":2525,"Ġaz":2526,"uegos":2527,"Ġht":2528,"Ġbest":2529,"ols":2530,"izaje":2531,"ants":2532,"ĠÑĨ":2533,"Ġself":2534,"éĹ":2535,"Ġcla":2536,"anti":2537,"Ð°ÑİÑĤ":2538,"Ġpropi":2539,"à¸±":2540,"Ġ100":2541,"iva":2542,"portun":2543,"Ġcrea":2544,"Ġimportantes":2545,"Ġboth":2546,"Ġutilizando":2547,"Ġobjetos":2548,"Ġmomento":2549,"ĠtÃ©cn":2550,"Ġpan":2551,"Ġsch":2552,"ÑĭÑħ":2553,"ational":2554,"Ġcommun":2555,"bas":2556,"rite":2557,"ä¼":2558,"erÃŃa":2559,"Ġour":2560,"Ġname":2561,"Ġvent":2562,"ĠPer":2563,"ÑıÑĤ":2564,"ape":2565,"au":2566,"Ġdas":2567,"ismo":2568,"Ġvia":2569,"Ġcomen":2570,"key":2571,"Ġvariable":2572,"Ð½Ð¾ÑģÑĤÐ¸":2573,"æķ":2574,"Ġcab":2575,"Ġespa":2576,"ĠSie":2577,"Ġnatural":2578,"af":2579,"eta":2580,"ni":2581,"Ãª":2582,"â£":2583,"ÑĤÐµÑĢ":2584,"Ġsegun":2585,"ema":2586,"Ġsum":2587,"ĠHT":2588,"ä¸ª":2589,"åı¯ä»¥":2590,"gin":2591,"tle":2592,"Å¼":2593,"Ġvir":2594,"old":2595,"Ã¡p":2596,"icht":2597,"è¦ģ":2598,"ĠÑĤÐ¾":2599,"Ġexp":2600,"Ġcuer":2601,"ÐµÑĤÑģÑı":2602,"Ġalgorith":2603,"ker":2604,"Ġcient":2605,"ĠCu":2606,"Ġ18":2607,"ĠThey":2608,"ä¸Ń":2609,"ĠfÃ¡cil":2610,"ness":2611,"æĿ":2612,"ences":2613,"osa":2614,"ĠAp":2615,"Ġlibr":2616,"Ġseguir":2617,"bers":2618,"iales":2619,"èĢ":2620,"entro":2621,"ÑħÐ¾Ð´":2622,"Ġaprendizaje":2623,"Por":2624,"Ġtres":2625,"Ġadap":2626,"Ġfal":2627,"Ġesc":2628,"iron":2629,"Ġley":2630,"Ġprefer":2631,"Ġstar":2632,"ĠÐ¿ÑĢÐµÐ´":2633,"Ġestable":2634,"Ġproceso":2635,"cy":2636,"Ġig":2637,"Ġbot":2638,"uss":2639,"tom":2640,"å¸":2641,"Ġtar":2642,"oso":2643,"titu":2644,"Ġhard":2645,"Ġtop":2646,"Ġimpro":2647,"ĠÐ²Ñģ":2648,"icio":2649,"Ð³ÑĢ":2650,"Ġhealth":2651,"Ġcasa":2652,"Ġdivers":2653,"ont":2654,"Ġmez":2655,"Ġauf":2656,"Ġ.":2657,"Ġdeber":2658,"Ġend":2659,"Ġinput":2660,"ĠÐºÐ¾Ð¼":2661,"Ġcoun":2662,"Ġtype":2663,"Ġinstal":2664,"Ġherramientas":2665,"Ġrecursos":2666,"Ġalm":2667,"Ġbased":2668,"))":2669,"Ġpens":2670,"Ġeduc":2671,"Ġ200":2672,"clus":2673,"avor":2674,"Ġpattern":2675,"hor":2676,"add":2677,"Ġhuev":2678,"atch":2679,"ĠespaÃ±":2680,"ited":2681,"Ð½Ð¾Ðµ":2682,"Ġeven":2683,"ĠAnd":2684,"Ġresultado":2685,"gram":2686,"hip":2687,"udo":2688,"Ġpap":2689,"Ġanal":2690,"Ġcontr":2691,"ĠSo":2692,"laciÃ³n":2693,"åĩ":2694,"Ġefici":2695,"Ġfre":2696,"Ð°Ð³":2697,"Ġknown":2698,"Th":2699,"nen":2700,"zas":2701,"ÑģÐ»Ð¸":2702,"ĠâĢľ":2703,"Ġpalabras":2704,"Äħ":2705,"è¡":2706,"Ġsor":2707,"Ġune":2708,"tac":2709,"Ġgru":2710,"Ġsaber":2711,"De":2712,"Ġenc":2713,"('":2714,"hing":2715,"Ġeas":2716,"ull":2717,"à¸¡":2718,"ÑĭÐ¹":2719,"ibilidad":2720,"Ġloc":2721,"What":2722,"ause":2723,"å·":2724,"Ġoc":2725,"Ġproject":2726,"Ġfeel":2727,"ĠfÃŃsica":2728,"Ġfundament":2729,"chen":2730,"Ġ11":2731,"ĠÑģÐ¾":2732,"ĠEstos":2733,"Ġdisposi":2734,"ake":2735,"ĠaÃ±o":2736,"Ġbaj":2737,"ĠAc":2738,"ÑĭÐ²":2739,"Ġrange":2740,"ä¸º":2741,"____":2742,"land":2743,"Ġesti":2744,"ĠÐ¼Ð¾Ð³":2745,"Ð½Ð¾ÑģÑĤÑĮ":2746,"Ġpossible":2747,"name":2748,"Ġsame":2749,"Ġsource":2750,"Ġbi":2751,"Ġbene":2752,"Ġese":2753,"puÃ©s":2754,"Ġol":2755,"Ġoften":2756,"ÐºÐ¾":2757,"Ġdocument":2758,"Ġconjun":2759,"ning":2760,"ests":2761,"ĠÐºÐ¾Ð½":2762,"Ġdispon":2763,"Ð´Ð°":2764,"Ġcharacter":2765,"fy":2766,"Ġdass":2767,"Ġeine":2768,"Ġesper":2769,"ÃŃo":2770,"ĠIA":2771,"Ġstud":2772,"ells":2773,"Ð¾Ð±Ñĭ":2774,"Ġlarge":2775,"åį":2776,"ties":2777,"ĠEspaÃ±":2778,"ĠHTML":2779,"anta":2780,"lex":2781,"Ġcontin":2782,"å¼":2783,"åĨ":2784,"Ġsom":2785,"adr":2786,"Ġfavor":2787,"abor":2788,"odr":2789,"Ġfew":2790,"Ġarchivo":2791,"12":2792,"Ġ&":2793,"Ġaround":2794,"ĠsÃŃ":2795,"ĠÐĺ":2796,"play":2797,"ĠsegÃºn":2798,"dic":2799,"Ġprom":2800,"Ġalguna":2801,"Ġpasos":2802,"Ġcosas":2803,"ati":2804,"zen":2805,"umn":2806,"Ġris":2807,"ĠThese":2808,"Ġlargo":2809,"cos":2810,"olÃ³g":2811,"aces":2812,"Ġresist":2813,"Ġqui":2814,"Ġevent":2815,"Ġmantener":2816,"âłĢ":2817,"Script":2818,"rent":2819,"Ġvon":2820,"ĠPero":2821,"Ġbeh":2822,"Ġestado":2823,"Ġfinal":2824,"Ġindividual":2825,"Para":2826,"Ġdud":2827,"Ġtend":2828,"Ġconv":2829,"Ð½Ð¸":2830,"ĠEuro":2831,"abilidad":2832,"ĠestÃ©":2833,"ĠrÃ¡p":2834,"ierto":2835,"ĠtÃ©r":2836,"iss":2837,"Ġrealiz":2838,"Ġporque":2839,"Ġjo":2840,"tics":2841,"Ġtexto":2842,"Ġabs":2843,"âĢį":2844,"Ġmaking":2845,"ĠÐ»Ñİ":2846,"Ġcebol":2847,"fÃŃa":2848,"å¾":2849,"Ġlife":2850,"atos":2851,"Ġgl":2852,"porta":2853,"Ġacces":2854,"ĠÐ¾Ñģ":2855,"Ġexperiment":2856,"Ġcommon":2857,"oluciÃ³n":2858,"ĠelectrÃ³n":2859,"ĠSol":2860,"Ġlogr":2861,"Ġentender":2862,"Ġcolores":2863,"Ġindustr":2864,"Ġsupport":2865,"Ġcamb":2866,"ward":2867,"å¹":2868,"æī":2869,"ĠÐĶ":2870,"tec":2871,"Ġaseg":2872,"ĠÃ¡re":2873,"],":2874,"é¢":2875,"Ð½Ð¸Ðº":2876,"Ð¸Ð±":2877,"ĠÑģÐ¿":2878,"Ġcho":2879,"Ġcorr":2880,"ÑĨÐ¸":2881,"Ġvarios":2882,"Ġdebido":2883,"Ġregular":2884,"Ġexplor":2885,"Ġfinan":2886,"Ġpunto":2887,"Ġquieres":2888,"ĠdiseÃ±o":2889,"ĠGoogle":2890,"å¥":2891,"Ġag":2892,"Ġair":2893,"Ġstruc":2894,"Ã¡tico":2895,"Ġgar":2896,"Ġqual":2897,"Ġincluyendo":2898,"Ġobjeto":2899,"æŀ":2900,"Ġsever":2901,"Ġrelig":2902,"ĠAPI":2903,"Ġbuena":2904,"lio":2905,"Ð¾Ðµ":2906,"ĠEst":2907,"Ġconstruc":2908,"ots":2909,"ĠdifÃŃ":2910,"ills":2911,"Ð¶Ðµ":2912,"Ġexperience":2913,"Ġenviron":2914,"ized":2915,"Ġevitar":2916,"Ġescribir":2917,"Ġvelocidad":2918,"bor":2919,"utr":2920,"Ġcum":2921,"Ġlight":2922,"ĠmÃ©s":2923,"Ġconvers":2924,"Ġellos":2925,"Ġcome":2926,"terior":2927,"Ġsug":2928,"ĠLo":2929,"Ð°Ð½Ð¸Ñı":2930,"ĠcaracterÃŃsticas":2931,"Ġobserv":2932,"cla":2933,"ĠQ":2934,"Ġline":2935,"Ġunos":2936,"rama":2937,"Ġ15":2938,"tividad":2939,"Ġright":2940,"Ġpatr":2941,"inux":2942,"18":2943,"hen":2944,"ĠØ":2945,"Ð°Ñħ":2946,"ÐµÐ¿":2947,"Ġass":2948,"Ð¾Ð·Ð´":2949,"Ġcoc":2950,"Ġsci":2951,"Ġou":2952,"tional":2953,"Ġvalue":2954,"Ġ</":2955,"Ġfactores":2956,"atures":2957,"Ġparticular":2958,"IN":2959,"åĮ":2960,"Ġpour":2961,"Ġhere":2962,"Ġvi":2963,"Ġgive":2964,"ione":2965,"Ġoptim":2966,"Ġexperiencia":2967,"Ġusuario":2968,"Ġequipo":2969,"ÃŁ":2970,"Ġshe":2971,"Ġgal":2972,"ĠTierra":2973,"çŃ":2974,"Ġaument":2975,"ĠÐŃ":2976,"ather":2977,"Ġgen":2978,"Ġmean":2979,"Ġchall":2980,"Ð¾Ð¼Ñĥ":2981,"Ġgrande":2982,"Ġ202":2983,"âĸĪ":2984,"</":2985,"Ġmor":2986,"Ġsem":2987,"à¸§":2988,"Ġbefore":2989,"Ð¸ÑĤÐµÐ»ÑĮ":2990,"Ġsociedad":2991,"Ġgrav":2992,"ave":2993,"mientos":2994,"ĠTr":2995,"fec":2996,"ÙĬ":2997,"Ġspe":2998,"olver":2999,"ĠRec":3000,"Ġprepar":3001,"Ġenergy":3002,"Ġempresa":3003,"Ġdescubr":3004,"ON":3005,"ule":3006,"Ġhar":3007,"Ġnorm":3008,"Ġgust":3009,"try":3010,"quitec":3011,"Ġcompon":3012,"ificar":3013,"Ġnuevo":3014,"ĠJavaScript":3015,"Ġrelev":3016,"etas":3017,"ĠIs":3018,"vern":3019,"Ġapplica":3020,"Ġfood":3021,"Ġestructura":3022,"ĠEspaÃ±a":3023,"Ġtab":3024,"adamente":3025,"Ġnecesidades":3026,"render":3027,"Ġbecause":3028,"ken":3029,"ua":3030,"ä¿":3031,"Ġcult":3032,"alla":3033,"ĠSu":3034,"Ġkeep":3035,"ĠnÃºmeros":3036,"----------------":3037,"ĠtÃ©rmin":3038,"Sure":3039,"word":3040,"Ġmight":3041,"cial":3042,"ades":3043,"Ð¼Ð¸":3044,"Ġamor":3045,"ĠVer":3046,"Ġgrandes":3047,"Ġtransform":3048,"ield":3049,"Ġfel":3050,"Ġconver":3051,"Ġels":3052,"ÑĢÐµÐ¼":3053,"Ã©ctr":3054,"ÑĥÑī":3055,"Ġ==":3056,"Ġable":3057,"Ġejemplos":3058,"Ġconocido":3059,"Ex":3060,"Un":3061,"oss":3062,"isis":3063,"Ð°Ñĩ":3064,"raciÃ³n":3065,"Ġrem":3066,"ÑĥÐ¼":3067,"ceite":3068,"Ġlocal":3069,"Ġproblema":3070,"pende":3071,"Ġpreguntas":3072,"Ġsystems":3073,"Ã§Ã£o":3074,"Ġdir":3075,"Ġsich":3076,"ĠÐ¢":3077,"Ġye":3078,"Ġbro":3079,"char":3080,"Ġposi":3081,"ĠAssistant":3082,"work":3083,"Ð°Ð±Ð¾ÑĤ":3084,"Ġminutos":3085,"16":3086,"bal":3087,"bles":3088,"hora":3089,"æł":3090,"Ã³mo":3091,"Ġelse":3092,"edor":3093,"abr":3094,"Ġneur":3095,"Ġbetter":3096,"Ġusuarios":3097,"æĸ¹":3098,"ĠÑģÐ²Ð¾":3099,"mer":3100,"ĠÐľ":3101,"Ð½Ð¾Ð²":3102,"Ġvalores":3103,"Ġbuscar":3104,"ĠeconÃ³m":3105,"Ġigual":3106,"ç¨":3107,"Ġanti":3108,"cha":3109,"à¸Ĺ":3110,"ious":3111,"éĩ":3112,"Ġtro":3113,"tiene":3114,"ĠThere":3115,"ÐµÐ³Ð¾":3116,"ĠÐĲ":3117,"Ð°Ñİ":3118,"Ġconn":3119,"cho":3120,"ibr":3121,"ieren":3122,"ĠserÃŃa":3123,"Ġmuest":3124,"Ġtak":3125,"usti":3126,"ils":3127,"ily":3128,"ĠCal":3129,"Ġempe":3130,"uerra":3131,"ologÃŃa":3132,"Ġindepend":3133,"\">":3134,"ĠdÃ©":3135,"Ġcle":3136,"Ġaliment":3137,"Ġsure":3138,"ify":3139,"Ġvariedad":3140,"Ġtechnolog":3141,"Ġcontenido":3142,"ĠcientÃŃfic":3143,"Ġcebolla":3144,"ĠPre":3145,"ĠPuedes":3146,"istas":3147,"Ġuser":3148,"tual":3149,"Ġdistribu":3150,"less":3151,"Ġtema":3152,"Ġcuerpo":3153,"hl":3154,"esta":3155,"Ġaunque":3156,"Ġdentro":3157,"Ġcop":3158,"ican":3159,"igura":3160,"ĠcuÃ¡n":3161,"Ġhacia":3162,"Ġart":3163,"Ġarquitec":3164,"Ġclase":3165,"ĠðŁĺ":3166,"Ġtrabajar":3167,"Ġwebs":3168,"Ġtemperatura":3169,"ER":3170,"rÃ¡":3171,"Ġsto":3172,"Ġresul":3173,"ĠÐ¸Ð¼":3174,"Ġclar":3175,"ĠÃ¨":3176,"pt":3177,"uf":3178,"ures":3179,"yle":3180,"zy":3181,"æĢ":3182,"ĠQu":3183,"Ġmass":3184,"let":3185,"ÑĢÐ¾Ñģ":3186,"Ð»Ñİ":3187,"à¸´":3188,"Ġcontra":3189,"Ġuniverso":3190,"Ġtasks":3191,"ĠespaÃ±ol":3192,"OS":3193,"éĿ":3194,"Ġpur":3195,"Ġment":3196,"Ġconoc":3197,"Ġherramienta":3198,"Ġproyecto":3199,"Ġdigital":3200,"Ġaproxim":3201,"AquÃŃ":3202,"æĶ":3203,"çĽ":3204,"ĠpÃº":3205,"isiÃ³n":3206,"raw":3207,"Ġsec":3208,"igos":3209,"à¸¢":3210,"ĠMan":3211,"Ġwithout":3212,"ĠIns":3213,"Ġrob":3214,"æ³ķ":3215,"15":3216,"Ġbat":3217,"Ġnon":3218,"ÑĢÐ°Ð½":3219,"echa":3220,"Ġsociales":3221,"Ġcampo":3222,"Ġfuturo":3223,"Ġtan":3224,"Ġess":3225,"ĠelÃ©ctr":3226,"ĠEm":3227,"Ð¸Ð¼ÐµÑĢ":3228,"Ġformas":3229,"Ġmisma":3230,"Ġprimer":3231,"è¿Ļ":3232,"Ġincluyen":3233,"Ġmusic":3234,"ĠÐºÐ¾ÑĤÐ¾ÑĢÑĭÐµ":3235,"Ġfollowing":3236,"Ġseveral":3237,"fin":3238,"gaciÃ³n":3239,"Ġpack":3240,"Ġsenci":3241,"Ġideas":3242,"Ġcultura":3243,"Si":3244,"med":3245,"Äĩ":3246,"æĬ":3247,"ĠdÃŃas":3248,"Ġbal":3249,"Ġmach":3250,"Ġeleg":3251,"Ġquestions":3252,"Ġensure":3253,"ĠmÃ©todo":3254,"gas":3255,"æĤ":3256,"ĠSt":3257,"Ġ30":3258,"Ġinterac":3259,"ÑĪÐµ":3260,"ways":3261,"Ġtareas":3262,"onal":3263,"Ġthings":3264,"Ġglo":3265,"ĠestÃ¡s":3266,"ĠFran":3267,"ĠOne":3268,"Ġdiferencia":3269,"Ġprincipal":3270,"Ġprincipales":3271,"Ð°ÑĨÐ¸Ð¸":3272,"Ġaque":3273,"Ġagre":3274,"ÑĢÐ¸":3275,"antas":3276,"Ġtrat":3277,"ĠopciÃ³n":3278,"ĠÃ©l":3279,"Ġimpac":3280,"ĠpÃ¡g":3281,"Ġfoc":3282,"Ġescal":3283,"tric":3284,"ĠSh":3285,"ĠSome":3286,"Ġaccess":3287,"Ġstart":3288,"Ġefec":3289,"Ã¶n":3290,"ç¨ĭ":3291,"men":3292,"Ġcel":3293,"onom":3294,"Ġesa":3295,"Ġutil":3296,"ĠOr":3297,"Ġrelacion":3298,"Ġpermiti":3299,"ĠniÃ±os":3300,"å¦Ĥ":3301,"List":3302,"ai":3303,"bra":3304,"ole":3305,"iness":3306,"Ġless":3307,"Ġprev":3308,"Ġkann":3309,"ights":3310,"Ġvarias":3311,"Ġplaneta":3312,"Ã©rica":3313,"Ġproyectos":3314,"Ġintegral":3315,"â£¿":3316,"Ġscript":3317,"ĠmÃ¡":3318,"Ġecu":3319,"Ġveces":3320,"ĠEarth":3321,"à¸Ķ":3322,"ĠCan":3323,"ÐµÐ½ÑĮ":3324,"Ġarr":3325,"Ġstand":3326,"Ġhaya":3327,"arious":3328,"Ġcurrent":3329,"Can":3330,"bs":3331,"gl":3332,"mar":3333,"Ġaud":3334,"Ġdepende":3335,"Ġgas":3336,"Ġrece":3337,"Ġconstr":3338,"Ġopciones":3339,"Ġencuentra":3340,"Ġevery":3341,"ET":3342,"by":3343,"Ġcase":3344,"ically":3345,"imientos":3346,"ames":3347,"à¸¥":3348,"utar":3349,"Ġimpres":3350,"Ġcompu":3351,"ĠĠĠĠĠĠĠĠĠ":3352,"Ġpueda":3353,"Ġvariables":3354,"Ð¾Ð»ÑĮÐºÐ¾":3355,"Ġrequire":3356,"Ġresultados":3357,"Ġobjetivo":3358,"Ġenvironment":3359,"SS":3360,"Ġsize":3361,"Ġfer":3362,"ĠrelaciÃ³n":3363,"ĠEr":3364,"utton":3365,"Ġextra":3366,"Ġonline":3367,"ĠEstas":3368,"icidad":3369,"Ġhabit":3370,"Ġeval":3371,"Ġnecesario":3372,"Ġdevelopment":3373,"Ġrepresent":3374,"ban":3375,"Ġoder":3376,"Ġeso":3377,"ĠCar":3378,"ĠMo":3379,"ordes":3380,"itive":3381,"ĠÐ·Ð°":3382,"Ġautom":3383,"Ġinfin":3384,"å±":3385,"å½":3386,"ÑĤÐ¾Ð±Ñĭ":3387,"Ã¡tica":3388,"Ġremo":3389,"Ġiss":3390,"ĠDis":3391,"Ġdisfr":3392,"ĠOn":3393,"Ð·Ñĭ":3394,"Ġtipos":3395,"âłĢâłĢ":3396,"oking":3397,"Ġagr":3398,"Ġluego":3399,"Ġvarious":3400,"Ġrepe":3401,"Ġpartir":3402,"ird":3403,"ĠÐ¾Ð´":3404,"Ġmedida":3405,"Ġprograma":3406,"Ð³Ð¾":3407,"gain":3408,"Ġdeben":3409,"Ġprimera":3410,"åŃ¦":3411,"Ġanswer":3412,"Ġdid":3413,"Ġmade":3414,"Ġword":3415,"Ġcomput":3416,"item":3417,"Ġdiffic":3418,"Ġclave":3419,"Ġasegur":3420,"day":3421,"enn":3422,"Ġamo":3423,"Ġaceite":3424,"tido":3425,"ism":3426,"Ð½Ðµ":3427,"Ġvector":3428,"ĠHay":3429,"Ġutilizan":3430,"Ġopin":3431,"Ġtermin":3432,"Ġbuen":3433,"ĠalgÃºn":3434,"åĽ½":3435,"âķ":3436,"ungen":3437,"Ġfuego":3438,"row":3439,"ides":3440,"ÑģÐ»":3441,"ĠLinux":3442,"Ð¾Ð³ÑĢ":3443,"å¯¹":3444,"odrÃŃas":3445,"Ġcambio":3446,"lla":3447,"ping":3448,"Ðļ":3449,"ende":3450,"Ġmens":3451,"ĠÐł":3452,"Ġread":3453,"ample":3454,"Ġresources":3455,"Ġ50":3456,"ficient":3457,"Ġdebes":3458,"ffe":3459,"ĠdifÃŃcil":3460,"PT":3461,"Ġflu":3462,"Ġoportun":3463,"Ġcontain":3464,"Ġgan":3465,"ĠCo":3466,"isten":3467,"Ġgenerar":3468,"Ġeffect":3469,"Ġraz":3470,"Ġhttps":3471,"60":3472,"div":3473,"æŃ":3474,"cido":3475,"Ġwrit":3476,"eck":3477,"Ġsuc":3478,"umento":3479,"load":3480,"Ġinterf":3481,"Ġcalor":3482,"Ġrequi":3483,"Ġproporcionar":3484,"ĠaplicaciÃ³n":3485,"indows":3486,"Ġdifficult":3487,"17":3488,"Me":3489,"ç§":3490,"Ġtotal":3491,"tring":3492,"Ð¸Ð³":3493,"esting":3494,"Ġchang":3495,"Ġfuncion":3496,"äºĨ":3497,"html":3498,"Ġbelie":3499,"æĤ¨":3500,"Te":3501,"Ġ>":3502,"Ġps":3503,"Ġpon":3504,"Ġpla":3505,"à¸ĩ":3506,"ĠÐ²Ð°Ð¼":3507,"ĠGe":3508,"ĠJo":3509,"Ãºsque":3510,"Ġoriginal":3511,"mon":3512,"éľ":3513,"ĠÙ":3514,"Ġtable":3515,"uno":3516,"Ġgreat":3517,"ĠSal":3518,"Ġpodemos":3519,"Ġargument":3520,"Ġpropiedad":3521,"kes":3522,"çĲ":3523,"ank":3524,"tell":3525,"thers":3526,"ĠestÃ©n":3527,"ĠÐ¾Ð¿":3528,"Ġplace":3529,"Ð¾ÑĢÐ¼":3530,"Ġidi":3531,"Ġsentido":3532,"Ġframe":3533,"Ã©tica":3534,"ething":3535,"Ð²ÐµÑĤ":3536,"troduc":3537,"Ġservid":3538,"Ġsiguientes":3539,"Ġimpact":3540,"Ġspace":3541,"Ġquestion":3542,"Ġalmac":3543,"aron":3544,"Ġfree":3545,"Ġgiv":3546,"Ð»Ð¾":3547,"iblio":3548,"ĠÐ½Ð¾":3549,"Ġstory":3550,"Ġexplain":3551,"Ġfound":3552,"Ġalgorit":3553,"Los":3554,"set":3555,"Ġ?":3556,"Ġfaci":3557,"ĠIm":3558,"Ġ13":3559,"Ġcompos":3560,"ĠÐ½Ð°Ð¿":3561,"Ġcuanto":3562,"tures":3563,"Ġavail":3564,"Ġtengo":3565,"Ġmagn":3566,"AI":3567,"vas":3568,"vil":3569,"è´":3570,"Ġ][":3571,"Ġsind":3572,"anos":3573,"Ġmess":3574,"atas":3575,"Ġarea":3576,"Ġfunciones":3577,"Ġhumano":3578,"Ġafect":3579,"Ġproblem":3580,"Ġphys":3581,"Ġmultiple":3582,"Ġyo":3583,"Ġhora":3584,"raft":3585,"illo":3586,"etro":3587,"cionales":3588,"Ġpoint":3589,"Ġconocimiento":3590,"aleza":3591,"Ġestoy":3592,"Ġfuente":3593,"æĹ¶":3594,"Ġmediante":3595,"éľĢ":3596,"Puedes":3597,"ling":3598,"çİ":3599,"Ġcin":3600,"Ġpad":3601,"Ġpant":3602,"Ġnada":3603,"Ġvac":3604,"ĠseÃ±":3605,"Ġalta":3606,"ĠÑģÐ°Ð¼":3607,"ĠRed":3608,"arias":3609,"Ġpresent":3610,"Ġlibro":3611,"Ġambiente":3612,"Ġexamples":3613,"Ġoutput":3614,"Ġblan":3615,"Ġprecis":3616,"via":3617,"Ġtim":3618,"Ġcare":3619,"read":3620,"Ġano":3621,"uso":3622,"Ã©l":3623,"ÑĥÐ¶":3624,"Ġimage":3625,"anda":3626,"Ð¾Ð»Ð½":3627,"Ġcarr":3628,"Ġconceptos":3629,"ĠmatemÃ¡ticas":3630,"Ġespacio":3631,"Ġfundamental":3632,"();":3633,"light":3634,"ÅĽ":3635,"Ġtama":3636,"izaciÃ³n":3637,"quest":3638,"Ġestre":3639,"Ã±ar":3640,"Ð°Ð½Ð¸Ðµ":3641,"Ġcommand":3642,"Ġfactors":3643,"Ġsupuesto":3644,"77777777":3645,"ĠCuando":3646,"Ġhuevos":3647,"14":3648,"æı":3649,"Ġagain":3650,"ints":3651,"taciÃ³n":3652,"à¸Ħ":3653,"porte":3654,"ĠÑģÐ¾Ð·Ð´":3655,"Ð²Ð»Ñı":3656,"à¹Ħ":3657,"ĠÑĢÐ°Ñģ":3658,"ĠÐ±ÑĥÐ´":3659,"Ð½Ð°Ñı":3660,"Ġskills":3661,"Ġapproach":3662,"Ġcomenzar":3663,"Ġsomething":3664,"ush":3665,"tation":3666,"oud":3667,"Ġsepar":3668,"erse":3669,"Ġnoti":3670,"Ġasp":3671,"ĠMed":3672,"ĠRes":3673,"till":3674,"icial":3675,"Ġapp":3676,"ĠkÃ¶n":3677,"Ġshow":3678,"ĠhabÃŃa":3679,"Ġreducir":3680,"Ġimagen":3681,"Ġswitch":3682,"ĠprÃ¡ctica":3683,"Ġevalu":3684,"Ãºsqueda":3685,"Con":3686,"How":3687,"px":3688,"Ġach":3689,"Ġciencia":3690,"Ġsay":3691,"Ġsean":3692,"Ġalways":3693,"ural":3694,"Ġkil":3695,"ferm":3696,"Ġcalled":3697,"ĠniÃ±o":3698,"Ġprotec":3699,"Ġingred":3700,"ĠpartÃŃcul":3701,"ĠAlgunos":3702,"Ġmezcla":3703,"ĠÐ¼Ð¾Ð³ÑĥÑĤ":3704,"Here":3705,"oid":3706,"ux":3707,"Ġfur":3708,"Ã¡r":3709,"Ġofre":3710,"Ġalcan":3711,"à¸ķ":3712,"ĠCons":3713,"Ġnow":3714,"ĠcreaciÃ³n":3715,"Ġautoma":3716,"Ġmasa":3717,"::":3718,"CÃ³mo":3719,"Ġdia":3720,"une":3721,"tio":3722,"roid":3723,"itud":3724,"ÐµÐ¶":3725,"Ġ25":3726,"Ġlevel":3727,"Ġaddition":3728,"Ġrecord":3729,"ĠWhen":3730,"Ġreduce":3731,"çĲĨ":3732,"ÐŁ":3733,"Ġich":3734,"Ġlec":3735,"tate":3736,"Ġrecon":3737,"irm":3738,"Ġ--":3739,"Ġcontent":3740,"ube":3741,"Ġmejores":3742,"Ġpotential":3743,"Ġmateriales":3744,"Ġexisten":3745,"data":3746,"ror":3747,"Ġdue":3748,"Ġox":3749,"ÃŃr":3750,"Ġdesaf":3751,"Ġvery":3752,"Ġevid":3753,"encial":3754,"Ã¤n":3755,"æĪĸ":3756,"ĠÐµÐ³Ð¾":3757,"Ġstate":3758,"Ġtypes":3759,"Ġhecho":3760,"Ġalgorithm":3761,"Ġpapel":3762,"Ġempezar":3763,"body":3764,"iod":3765,"ãĥ":3766,"leg":3767,"Ġtoda":3768,"ieron":3769,"ything":3770,"Ġinstruc":3771,"Ġrealidad":3772,"ĠcomprensiÃ³n":3773,"Ġdesarrollar":3774,"Ġcircu":3775,"Ġllegar":3776,"Ġinternet":3777,"Ġgrupo":3778,"Hay":3779,"Ġpag":3780,"Ġdecl":3781,"Ġcontribu":3782,"Ġalterna":3783,"ember":3784,"iera":3785,"Ġjuegos":3786,"Ġserie":3787,"Ġserver":3788,"Ġteam":3789,"ĠGr":3790,"Ġquien":3791,"Ð°Ð½ÑĤ":3792,"ĠÑĩÑĤÐ¾Ð±Ñĭ":3793,"Ġtemas":3794,"Ġtenga":3795,"Ġauto":3796,"Ġingl":3797,"Ġsteps":3798,"è¡Į":3799,"99":3800,"uan":3801,"èĩ":3802,"Ġliv":3803,"Ġconte":3804,"ĠdespuÃ©s":3805,"Ã±as":3806,"Ġyourself":3807,"Ġemp":3808,"Ġhablar":3809,"Ġmedia":3810,"Ġnecess":3811,"Ġvalues":3812,"Ġcomunes":3813,"Ġlimit":3814,"Ġconstante":3815,"Ġhumanos":3816,"Ġmovimiento":3817,"ĠpaÃŃses":3818,"Ġimprove":3819,"â£¿â£¿":3820,"ming":3821,"mend":3822,"ns":3823,"Ġmir":3824,"Ġmust":3825,"unca":3826,"time":3827,"ĠfÃ¼r":3828,"Ġothers":3829,"Ġtools":3830,"ige":3831,"à¸°":3832,"Ġacer":3833,"uck":3834,"Ġconsult":3835,"Ð¾Ð»ÐµÐµ":3836,"ours":3837,"Ġmenor":3838,"Ġmarket":3839,"Ġuma":3840,"Ġresponse":3841,"Ð½ÑĭÐ¼Ð¸":3842,"Ġidentific":3843,"As":3844,"æ²":3845,"Ġagu":3846,"Ġcat":3847,"Ġbody":3848,"ÑĥÑģ":3849,"ÑģÑĤÑĢ":3850,"ĠBl":3851,"cular":3852,"Ġmoder":3853,"Ġpractic":3854,"Ġestilo":3855,"Ġconjunto":3856,"Ġanother":3857,"lab":3858,"Ġur":3859,"Ġtre":3860,"cios":3861,"Ġuntil":3862,"Ġbiblio":3863,"Ð»ÐµÐ½":3864,"togra":3865,"à¸«":3866,"tively":3867,"otos":3868,"Ġinterpre":3869,"Ġunder":3870,"Ġnaturaleza":3871,"Ġincor":3872,"Ġamplia":3873,"Ġacceso":3874,"ĠinglÃ©s":3875,"jan":3876,"Ġdetec":3877,"Ġfon":3878,"Ġlabor":3879,"ĠcomÃºn":3880,"acer":3881,"Ġ14":3882,"ication":3883,"Ġpredic":3884,"llas":3885,"ustom":3886,"Ġprogres":3887,"Ġverd":3888,"Ġverdad":3889,"Ġnecesitas":3890,"Ġpollo":3891,"Ġdecisiones":3892,"Ġalmacen":3893,"View":3894,"vis":3895,"ĠaÃ±":3896,"ĠtÃŃ":3897,"Ġmind":3898,"ĠÐķ":3899,"ĠbÃºsqueda":3900,"Ġnicht":3901,"izar":3902,"ĠBo":3903,"Ġsoy":3904,"Ġplata":3905,"Ġcolumn":3906,"äºİ":3907,"Ġexplicar":3908,"ĠAmer":3909,"Ġactividades":3910,"Ġcambiar":3911,"Ġsignificant":3912,"Ġdispositivos":3913,"ĠpÃ¡gina":3914,"Ġachie":3915,".-":3916,"80":3917,"Ġpic":3918,"Ġstill":3919,"ingle":3920,"Ð½ÑĥÑİ":3921,"ÑĥÐ¿":3922,"utas":3923,"Ġresolver":3924,"ĠÐ¸Ð³ÑĢ":3925,"ĠBar":3926,"Ġmeas":3927,"Ġacordes":3928,"Ġworks":3929,"OR":3930,"not":3931,"Ġmot":3932,"ouble":3933,"imin":3934,"ĠAt":3935,"ĠDo":3936,"Ġrom":3937,"Ġmanag":3938,"Ġstrateg":3939,"Ġpersonajes":3940,"Ġcorre":3941,"Ġelec":3942,"Ġmatch":3943,"ĠcontinuaciÃ³n":3944,"ĠÐ¸ÑģÐ¿Ð¾Ð»ÑĮÐ·Ñĥ":3945,"Ġnuestro":3946,"Ġfocus":3947,"')":3948,"come":3949,"iantes":3950,"ĠsÃ³":3951,"Ġnet":3952,"Ġwer":3953,"Ð»ÑĮ":3954,"à¸ª":3955,"ĠCl":3956,"ĠÐ²ÑĢÐµÐ¼":3957,"Ġplat":3958,"ĠAddition":3959,"Ġcause":3960,"Ġautor":3961,"Ġnumbers":3962,"Ġafter":3963,"Ġdependiendo":3964,"ĠÐ±ÑĭÑĤÑĮ":3965,"Ġindividu":3966,"ĠtamaÃ±o":3967,"gs":3968,"ency":3969,"ÐµÑħ":3970,"Ġenti":3971,"icros":3972,"Ġnutr":3973,"iene":3974,"ĠÑģÐº":3975,"head":3976,"ĠWor":3977,"Ġweight":3978,"Ġhabl":3979,"Ġformat":3980,"ĠÃ¼":3981,"Ġdistancia":3982,"Ġcomunidad":3983,"uestas":3984,"Ã¡lisis":3985,"ĠtecnologÃŃas":3986,"Ġgrow":3987,"Ġgusto":3988,"ĠÐŃÑĤÐ¾":3989,"Ġservidor":3990,"Ġavailable":3991,"mine":3992,"enciÃ³n":3993,"Ġsos":3994,"Ġenferm":3995,"ĠgÃ©n":3996,"ello":3997,"Ġofrec":3998,"uring":3999,"ÑģÑĤÑĮ":4000,"Ġcreating":4001,"II":4002,"ncia":4003,"python":4004,"orn":4005,"ÃŃfica":4006,"ĠMon":4007,"Ð¸Ð¿":4008,"ĠÐ²Ð¾Ð·":4009,"Ġarte":4010,"Ġperspec":4011,"ĠÑĪ":4012,"Ð°ÑĤÐµÐ»ÑĮ":4013,"cale":4014,"åĪĨ":4015,"Ġfamilia":4016,"200":4017,"30":4018,"fera":4019,"pp":4020,"Ð¡":4021,"èµ":4022,"éĻ":4023,"Ġpython":4024,"Ġfabr":4025,"Ġenter":4026,"Ġwid":4027,"ÑĢÐ°Ð²":4028,"Ã¡fic":4029,"ules":4030,"Ġask":4031,"ĠBy":4032,"ucle":4033,"alls":4034,"Ġcumpl":4035,"Ġmachine":4036,"Ġimpacto":4037,"æıĲ":4038,"Las":4039,"dr":4040,"Ġsart":4041,"Ġmos":4042,"tely":4043,"ability":4044,"etes":4045,"app":4046,"Ġdisco":4047,"Ġhaber":4048,"ĠðŁĳ":4049,"ĠÐ·Ð°Ð´":4050,"adora":4051,"äºĽ":4052,"ĠReg":4053,"ĠÑıÐ·Ñĭ":4054,"Ġdirect":4055,"Ġnuevas":4056,"Ġjugadores":4057,"Ġchallen":4058,"'ll":4059,"25":4060,"ID":4061,"æĮ":4062,"Ġhim":4063,"Ġhoy":4064,"roz":4065,"Ġning":4066,"Ġconcent":4067,"Ġvan":4068,"ienta":4069,"ĠquÃŃm":4070,"Ġstring":4071,"Ġallows":4072,"ĠpelÃŃcula":4073,"Ġaumentar":4074,"Ġverduras":4075,"ĠsartÃ©n":4076,"PU":4077,"ius":4078,"zos":4079,"æİ":4080,"Ġdich":4081,"Ġtoo":4082,"ÑĢÐ°Ð·":4083,"Ġcomien":4084,"respon":4085,"abil":4086,"tives":4087,"Ġquick":4088,"Ġcaf":4089,"Ð½Ð°Ñĩ":4090,"www":4091,"Ġengine":4092,"\");":4093,"An":4094,"ek":4095,"game":4096,"æĥ":4097,"ream":4098,"Ġfran":4099,"Ġfish":4100,"Ġnunca":4101,"Ġvoc":4102,"ĠÐ¸Ñħ":4103,"guien":4104,"culo":4105,"Ġgovern":4106,"å¤§":4107,"Ġmaintain":4108,"Ġproduce":4109,"ĠAdditionally":4110,"13":4111,"arr":4112,"orr":4113,"Ġvuel":4114,"Ġcomida":4115,"Ġsufici":4116,"ĠÐ²Ð°ÑĪ":4117,"ĠÂ·":4118,"ĠÐ±Ð¾Ð»ÑĮ":4119,"Ð¸Ð¼Ð¸":4120,"Ġproducto":4121,"ĠÐ¼Ð¾Ð¶Ð½Ð¾":4122,"Ġcentr":4123,"Ġsentir":4124,"Ġavanz":4125,"âĸĪâĸĪ":4126,"Ġ%":4127,"Ġaus":4128,"ony":4129,"Ġnor":4130,"ÑĢÐ°":4131,"Ġvar":4132,"ury":4133,"à¸·":4134,"Ġexiste":4135,"Ġamigos":4136,"Ð°ÑĤÑĮÑģÑı":4137,"Ġrelations":4138,"Ġduring":4139,"ĠÑıÐ²Ð»Ñı":4140,"å¥½":4141,"ĠtÃ©rminos":4142,"QL":4143,"ove":4144,"uto":4145,"Ġdeta":4146,"itz":4147,"ulas":4148,"Ġimages":4149,"Ð¼Ð¾Ð¶":4150,"ä¸ĭ":4151,"ÐµÐ»Ð¾Ð²":4152,"alized":4153,"Ġejerci":4154,"Ġprogramas":4155,"Ġlibros":4156,"Ġproductos":4157,"Ġbecome":4158,"Ġjuntos":4159,"Ġresistencia":4160,"Yes":4161,"Ġcost":4162,"Ġmel":4163,"Ġthose":4164,"Ġconclus":4165,"Ġredes":4166,"Ġalguien":4167,"Ġquer":4168,"Ġobra":4169,"ificaciÃ³n":4170,"Ġtax":4171,"Ġdistin":4172,"Ġmath":4173,"ä¸Ģä¸ª":4174,"Ġfuerza":4175,"ahr":4176,"ben":4177,"rbol":4178,"Ġaire":4179,"inter":4180,"tel":4181,"Ġban":4182,"Ġpartes":4183,"aja":4184,"ÐµÑĢÐ¶":4185,"çļĦç":4186,"Ġvariar":4187,"Ġvariety":4188,"Ġregul":4189,"Ġlibre":4190,"ĠÐ³Ð¾Ð´":4191,"Ġrecommend":4192,"åĲĮ":4193,"Ġprovides":4194,"Ġvideoj":4195,"Ġdinero":4196,"Ġazul":4197,"ĠÐºÐ¾Ð¼Ð¿":4198,"ĠpÃºbl":4199,"ĠcafÃ©":4200,"Ar":4201,"earch":4202,"Ġinno":4203,"Ġwrite":4204,"ÑĢÐ°ÑĤ":4205,"Ġsex":4206,"Ġsearch":4207,"Ġrep":4208,"ilibr":4209,"ĠIr":4210,"the":4211,"Ġdisc":4212,"items":4213,"Ġfrien":4214,"Ð°Ð¼Ð¼":4215,"Ġpoints":4216,"ĠpodrÃŃan":4217,"å®ļ":4218,"Ġcambios":4219,"indow":4220,"ĠÐ¸Ð½ÑĤÐµÑĢ":4221,"ĠinvestigaciÃ³n":4222,"ä¼ļ":4223,"ĠgustarÃŃa":4224,"Ġmuestra":4225,"Ġtechnology":4226,"Ġbibliote":4227,"11":4228,"dis":4229,"iado":4230,"ya":4231,"Ġense":4232,"ĠSim":4233,"ĠTer":4234,"Ġuses":4235,"Ġje":4236,"ĠIntern":4237,"Ġpaso":4238,"Ġderech":4239,"ĠpodrÃŃas":4240,"Ð¾ÑģÑĤÐ¾":4241,"Ġrefiere":4242,"éĹ®":4243,"éľĢè¦ģ":4244,"ler":4245,"uj":4246,"ï¸":4247,"ðĿ":4248,"ĠÐĵ":4249,"Ġthink":4250,"tead":4251,"imens":4252,"ĠCO":4253,"ÑĭÑĤ":4254,"Ġ16":4255,"Ġlook":4256,"tivamente":4257,"ĠWindows":4258,"ĠUse":4259,"à¹ĥ":4260,"ĠatenciÃ³n":4261,"Ġmodern":4262,"Ġsino":4263,"Ġbutton":4264,"Ġminim":4265,"Ġtomate":4266,"ÐµÑģÑģ":4267,"Ð¾Ð¿ÑĢÐ¾Ñģ":4268,"Ġdeseas":4269,"Ġarquitectura":4270,"Ġsuccess":4271,"bier":4272,"Ġcier":4273,"Ġpuer":4274,"Ġescu":4275,"Ð½Ñı":4276,"Ġmeans":4277,"ÐºÑĤ":4278,"ĠGu":4279,"Ġ=>":4280,"seg":4281,"Ġintegra":4282,"Ġprimero":4283,"Ġconflic":4284,"Ġinstall":4285,"Ð¸ÑĢÐ¾Ð²Ð°Ð½":4286,"ĠbÃ¡sicos":4287,"Ġtraining":4288,"é¢ĺ":4289,"ĠRecuer":4290,"Ġresults":4291,"ï¸ı":4292,"PodrÃŃas":4293,"TP":4294,"Ġalred":4295,"ĠĠĠĠĠĠĠĠĠĠ":4296,"Ġprecio":4297,"genes":4298,"turas":4299,"board":4300,"Ġentrada":4301,"ĠtÃ©cnicas":4302,"æĿ¥":4303,"Ġbajo":4304,"oft":4305,"Ġpy":4306,"Ġlay":4307,"Ġunique":4308,"à¸³":4309,"ĠBut":4310,"Ġperiod":4311,"Ġaccu":4312,"ÐµÐ½Ð¸":4313,"ĠÐ¿ÑĢÐ¾Ð³ÑĢ":4314,"Ġcarne":4315,"Ġterms":4316,"gether":4317,"Ġcertain":4318,"Ġexpress":4319,"ä¾ĭ":4320,"ĠÐ»ÑİÐ´":4321,"ĠconstrucciÃ³n":4322,"Ġgalax":4323,"Ġfacil":4324,"pers":4325,"Â°":4326,"Ġplease":4327,"Ġsiendo":4328,"urante":4329,"ï¼Ł":4330,"Ġstyle":4331,"à¹ģ":4332,"ĠposiciÃ³n":4333,"Ġgracias":4334,"olution":4335,"Ġhoras":4336,"Ġerror":4337,"Ġmercado":4338,"Ġmeaning":4339,"Ġwerden":4340,"ha":4341,"ka":4342,"nos":4343,"Ġtel":4344,"Ġcustom":4345,"ĠmÃ³":4346,"ciendo":4347,"Ġenfr":4348,"Ġanterior":4349,"rain":4350,"Ġcomporta":4351,"Ġlooking":4352,"Ġmano":4353,"Ġposition":4354,"æĪĲ":4355,"Ġconsiderar":4356,"ĠdirecciÃ³n":4357,"Ġplayers":4358,"ombres":4359,"Ġpatrones":4360,"Ġcomputer":4361,"hol":4362,"tice":4363,"Ġresearch":4364,"Ġorg":4365,"Ġplus":4366,"llig":4367,"ĠÑĩÐµÐ»Ð¾Ð²":4368,"Ġefecto":4369,"Ð°ÐµÑĤÑģÑı":4370,"ĠWhile":4371,"ĠsoluciÃ³n":4372,"Ġrepresenta":4373,"Ġparticip":4374,"Ġajust":4375,"Ġdesigned":4376,"Ġperformance":4377,"éĿ¢":4378,"ĠÃ¼ber":4379,"64":4380,"Ġata":4381,"ering":4382,"Ġpie":4383,"arlo":4384,"Ġhom":4385,"Ġtheory":4386,"Ġtogether":4387,"ĠAgre":4388,"uts":4389,"Ġjugar":4390,"ä¸Ĭ":4391,"cuencia":4392,"Ġemple":4393,"llos":4394,"aves":4395,"Ð»Ð¸Ñĩ":4396,"ÑģÑĤÐ²ÐµÐ½":4397,"Ġterm":4398,"ä½ľ":4399,"ĠÃ¡rbol":4400,"Ġnave":4401,"Ġresponder":4402,"Ġobjects":4403,"Ġconstruir":4404,"70":4405,"gi":4406,"è¾":4407,"ĠaÃºn":4408,"Ġcity":4409,"Ġmec":4410,"isti":4411,"Ġwie":4412,"Ġorient":4413,"Ġestad":4414,"ĠserÃ¡":4415,"fort":4416,"genier":4417,"Ġpress":4418,"Ġintellig":4419,"Ġfeatures":4420,"ĠproducciÃ³n":4421,"Ġcalcular":4422,"Ø§ÙĦ":4423,"ĠpelÃŃculas":4424,"åĩº":4425,"å·¥":4426,"Ġdisponibles":4427,"Ġspeed":4428,"Ġrelationship":4429,"Lo":4430,"oks":4431,"onces":4432,"Ġluch":4433,"Ġenf":4434,"Ġconect":4435,"amento":4436,"emon":4437,"utor":4438,"ĠLet":4439,"ĠÐ¿Ð¾Ð½":4440,"ival":4441,"Ġdest":4442,"ĠGran":4443,"ney":4444,"åıĳ":4445,"ä½¿":4446,"Ġambos":4447,"Ġhistor":4448,"åĪ°":4449,"Ġincluye":4450,"Ġsuperfici":4451,"Ġpopulares":4452,"Ġsoluciones":4453,"åºĶ":4454,"Ġunderstanding":4455,"Ġprofesional":4456,"Ġentrenamiento":4457,"ST":4458,"ctions":4459,"Ġlic":4460,"org":4461,"cipl":4462,"Ġfield":4463,"Ġconduc":4464,"Ġven":4465,"imos":4466,"Ġguerra":4467,"Ġextre":4468,"Ġcannot":4469,"ÐºÐ¾Ð²":4470,"Ġconsid":4471,"Ġleft":4472,"Ġclic":4473,"Ġtras":4474,"Ġgrad":4475,"ĠâĢĵ":4476,"Ġequilibr":4477,"Ġneeds":4478,"Ġconocimientos":4479,"Ġstrong":4480,"Ġpuntos":4481,"åľ°":4482,"ĠdemÃ¡s":4483,"è§£":4484,"Ġhardware":4485,"çŃī":4486,"ĠkÃ¶nnen":4487,"ĠRecuerda":4488,"Al":4489,"zan":4490,"cimiento":4491,"Ġflo":4492,"Ã³p":4493,"atro":4494,"Ġnar":4495,"usion":4496,"ulos":4497,"ÑıÐ·":4498,"ĠData":4499,"ocar":4500,"Ġarray":4501,"Ġhistory":4502,"Ã¨re":4503,"ĠÐµÑģÐ»Ð¸":4504,"è¿Ľ":4505,"Ġstep":4506,"ĠpequeÃ±o":4507,"Ġdomin":4508,"Ġfinanci":4509,"Ġtakes":4510,"Ð»ÑİÑĩ":4511,"Ġpantalla":4512,"cs":4513,"uen":4514,"Ġdol":4515,"anza":4516,"alada":4517,"Ġfamos":4518,"ĠanÃ¡lisis":4519,"Ġcontac":4520,"elo":4521,"ĠÐ²Ð¾Ð¿ÑĢÐ¾Ñģ":4522,"Ð´Ñĥ":4523,"Ġstor":4524,"Ġsigue":4525,"ĠÐ±Ð¾Ð»ÐµÐµ":4526,"Ġestaba":4527,"ĠAdd":4528,"Ġnuestra":4529,"Ġconnec":4530,"Com":4531,"face":4532,"ye":4533,"Ġmad":4534,"unk":4535,"Ġedad":4536,"Ð»Ð°ÑģÑĤ":4537,"ÑıÑĤÑĮ":4538,"Ġdesta":4539,"Ġorder":4540,"Ġries":4541,"Ġcomprender":4542,"Ġub":4543,"uerzo":4544,"ĠÑĥÑĩ":4545,"Ġgratu":4546,"Ġprofund":4547,"Ð¸Ð»ÑĮ":4548,"Ġvideos":4549,"Ġpalabra":4550,"ĠNew":4551,"ĠÐ¾ÑģÐ½Ð¾Ð²":4552,"Ġidioma":4553,"Ġplatform":4554,"Ġsuficiente":4555,"Se":4556,"ki":4557,"tp":4558,"è¨":4559,"tique":4560,"Ġfas":4561,"itan":4562,"Ġestr":4563,"Ð½Ð°Ðº":4564,"Ġcompe":4565,"Ġact":4566,"alizaciÃ³n":4567,"ÑĨÐ¸Ð¸":4568,"Ġefectos":4569,"Ġlik":4570,"estiÃ³n":4571,"Ġbusiness":4572,"Ġways":4573,"https":4574,"Ġpeso":4575,"Ġcondiciones":4576,"Ġfamiliar":4577,"Ġapplications":4578,"Ġconocer":4579,"icrosoft":4580,"hn":4581,"ÐĴ":4582,"å¿":4583,"æĦ":4584,"Ġcells":4585,"ark":4586,"ĠÐĳ":4587,"ala":4588,"ality":4589,"Ġflex":4590,"Ġgente":4591,"Ġoffer":4592,"igen":4593,"ock":4594,"tilla":4595,"Ġmuerte":4596,"Ġchange":4597,"Ġtrata":4598,"ĠVis":4599,"Ġoptions":4600,"Ġgoals":4601,"ĠÐ¾Ð±ÑĥÑĩ":4602,"Ð¸ÑĤÑĮÑģÑı":4603,"Ġpreguntar":4604,"Ġprofess":4605,"Ġobjetivos":4606,"Ġllamado":4607,"Ġviaje":4608,"Ġofrece":4609,"Ġalrededor":4610,"Re":4611,"ira":4612,"rom":4613,"æĽ":4614,"Ġsyn":4615,"Ġdet":4616,"Ġhag":4617,"Ġba":4618,"rop":4619,"Ġella":4620,"tera":4621,"abe":4622,"Ġimplica":4623,"Ġja":4624,"Ġadj":4625,"Ġchild":4626,"ĠÑĤÑĢ":4627,"Ã¡nica":4628,"pose":4629,"Ġdistance":4630,"ledge":4631,"ĠespecÃŃficas":4632,"Ġdescribe":4633,"Ġlibrary":4634,"Ġwebsite":4635,"Ġinnov":4636,"ĠÐ¿ÑĢÐ¾Ð³ÑĢÐ°Ð¼Ð¼":4637,"EN":4638,"ser":4639,"vi":4640,"ÑĬ":4641,"Ġdog":4642,"Ġtell":4643,"tig":4644,"Ġhy":4645,"tax":4646,"ilt":4647,"ether":4648,"ivos":4649,"Ġapoy":4650,"Ġsolici":4651,"Ġentonces":4652,"Ġsalsa":4653,"Ġconsidered":4654,"è¿ĩ":4655,"æķ°":4656,"Ġelegir":4657,"èĩª":4658,"æĭ":4659,"Ġsil":4660,"ĠSan":4661,"ÑĥÐµÑĤ":4662,"ĠLuego":4663,"Ġ->":4664,"Ġastr":4665,"Ġestrateg":4666,"Ġcompany":4667,"ĠÐ¿ÑĢÐ°Ð²":4668,"ĠVal":4669,"Ġcapital":4670,"Ġinvers":4671,"ĠÐ»Ð¸":4672,"Ġintens":4673,"à¸²à¸£":4674,"Ġpatterns":4675,"å¹¶":4676,"Ġtimes":4677,"ĠpartÃŃculas":4678,"Ġfurther":4679,"40":4680,"You":4681,"jer":4682,"rar":4683,"wh":4684,"Ġsqu":4685,"ÑĢÐµÐ´":4686,"tack":4687,"à¸Ī":4688,"ĠÐ¿Ð¾Ñģ":4689,"ĠMy":4690,"ĠMax":4691,"Ġresta":4692,"Ġlow":4693,"ÐºÐµ":4694,"Ġcuadr":4695,"Ġnext":4696,"Ð°Ð½Ð¾Ð²":4697,"ä¸İ":4698,"Ð¾Ð³Ð´Ð°":4699,"Ġrequiere":4700,"Ġupd":4701,"Ġblock":4702,"Ġbenef":4703,"ĠEurope":4704,"æŀľ":4705,"Ġaproximadamente":4706,"Ġstandard":4707,"Ġrepeti":4708,"åĳ":4709,"Ġeg":4710,"omas":4711,"ÑĤÐ¸":4712,"ecer":4713,"Ġcarb":4714,"ysis":4715,"ology":4716,"Ġbasa":4717,"çĶŁ":4718,"ĠdiseÃ±":4719,"ĠAlgunas":4720,"âĢįðŁ":4721,"Ġamount":4722,"SÃŃ":4723,"ium":4724,"itical":4725,"ood":4726,"sec":4727,"Ġiz":4728,"Ġfecha":4729,"Ġocur":4730,"Ġnues":4731,"oles":4732,"ĠSystem":4733,"aban":4734,"ĠCr":4735,"ĠCada":4736,"iza":4737,"ĠHar":4738,"Ġtex":4739,"Ð¾Ð²Ð¾ÑĢ":4740,"ĠWith":4741,"ĠOp":4742,"åĬ¨":4743,"ielo":4744,"Ġcele":4745,"Ġmemory":4746,"Ġconditions":4747,"Ġllevar":4748,"Ġefectiva":4749,"Ġmessage":4750,"tÃ³":4751,"tres":4752,"ÐĿ":4753,"Ñį":4754,"inos":4755,"ĠlÃ³g":4756,"ÃŃos":4757,"Ġvista":4758,"amp":4759,"iles":4760,"Ġloop":4761,"Ġapar":4762,"Ġdiscr":4763,"Ġkind":4764,"Ġfunciona":4765,"Ġsiglo":4766,"Ġsimpl":4767,"azÃ³n":4768,"Ġindica":4769,"Ġmix":4770,"ĠÑĤÐ°ÐºÐ¶Ðµ":4771,"ĠÐ¶Ð¸Ð·":4772,"Ġjugador":4773,"Ġproperty":4774,"based":4775,"ÑĥÑīÐµÑģÑĤÐ²":4776,"Ãµ":4777,"æµ":4778,"Ġdor":4779,"Ġdrag":4780,"Ġliter":4781,"Ġdec":4782,"Ġbes":4783,"imo":4784,"Ã¡les":4785,"Ã¡genes":4786,"ĠimÃ¡genes":4787,"Ãºrate":4788,"ÐµÐ½Ð¸Ð¹":4789,"Ġleer":4790,"Ġdisplay":4791,"ĠUtiliz":4792,"Ġincluir":4793,"Ġmotiv":4794,"Ġpobl":4795,"Ġauch":4796,"ĠcomunicaciÃ³n":4797,"Ġdark":4798,"ÑĥÑĢÑģ":4799,"ĠÃºnica":4800,"Ġscienti":4801,"Ġcultural":4802,"Ġalimentos":4803,"GPT":4804,"mod":4805,"pper":4806,"çĤ":4807,"Ġcod":4808,"Ġsie":4809,"ration":4810,"ĠPh":4811,"ift":4812,"ients":4813,"ĠGra":4814,"ĠÐ¼ÐµÐ½":4815,"ĠOver":4816,"Ġincluso":4817,"Ġdiferente":4818,"Ġmodelos":4819,"ĠYouT":4820,"Ġhope":4821,"Ġmillones":4822,"ength":4823,"Ġsegundo":4824,"Ġbehav":4825,"ĠÃ¡reas":4826,"Ġyears":4827,"Ãµes":4828,"Ùħ":4829,"ÙĨ":4830,"Ġdivid":4831,"Ġdouble":4832,"Ġsym":4833,"uela":4834,"Ġvect":4835,"ĠMicrosoft":4836,"Ġusando":4837,"ĠWord":4838,"Ġstd":4839,"ÃŃstica":4840,"Ġregis":4841,"Ġhumana":4842,"Ġavoid":4843,"Ġvisual":4844,"**:":4845,"Ġsatis":4846,"Ð°Ð¶Ð´":4847,"ä¹ł":4848,"Ġanimales":4849,"works":4850,"Ġinvolves":4851,"niques":4852,"Ġmental":4853,"ng":4854,"war":4855,"ination":4856,"Ġhip":4857,"Ġanything":4858,"Ġnp":4859,"Ġrecu":4860,"Ġreach":4861,"edo":4862,"Ġsuma":4863,"ume":4864,"Ġ17":4865,"main":4866,"ĠGer":4867,"andom":4868,"Ð´ÐµÐ»":4869,"culos":4870,"Ġmodo":4871,"äº§":4872,"ĠRev":4873,"Ġideal":4874,"uestos":4875,"Ġnueva":4876,"ÐµÑģÑĮ":4877,"Ġencuentran":4878,"jec":4879,"ader":4880,"Ġfic":4881,"Ġfres":4882,"entos":4883,"Ġreduc":4884,"ĠSp":4885,"ĠLes":4886,"Ġrend":4887,"Ġprue":4888,"Ġseres":4889,"Ġhaz":4890,"ogn":4891,"Ġabr":4892,"Ġability":4893,"Ð°Ð»Ð¸Ð·":4894,"Ġbasic":4895,"ä½ĵ":4896,"Ġambient":4897,"arning":4898,"å¤ļ":4899,"åĬ©":4900,"Ġelements":4901,"ĠComo":4902,"Ġletra":4903,"Ġlleg":4904,"Ġminutes":4905,"Ġrecib":4906,"ĠÐ¿Ð¾Ð»ÑĥÑĩ":4907,"CuÃ¡l":4908,"To":4909,"].":4910,"dit":4911,"éĽ":4912,"ane":4913,"Ð¾ÑĪ":4914,"adir":4915,"Ġfac":4916,"ĠSet":4917,"ÑĥÐ½":4918,"ĠÐ²ÐµÑĢ":4919,"Ġarroz":4920,"Ġejec":4921,"echan":4922,"geno":4923,"Ġeffec":4924,"Ġhacerlo":4925,"pread":4926,"lect":4927,"Ã¨s":4928,"Ġfiloso":4929,"Ġelemento":4930,"Ġmatter":4931,"Ġgroup":4932,"Ġcorrect":4933,"Ġmanten":4934,"Ġstructure":4935,"Ġpackage":4936,"Ġsuperficie":4937,"32":4938,"hal":4939,"ute":4940,"æ¨":4941,"ĠcÃ¡l":4942,"Ġside":4943,"ason":4944,"Ġmic":4945,"Ġbig":4946,"itat":4947,"Ġconcre":4948,"Ð»Ð°":4949,"Ġexpos":4950,"Ġconsist":4951,"Ð´Ðµ":4952,"Ġfunctions":4953,"Ġrespuestas":4954,"Ġservicios":4955,"Ġseguro":4956,"Ġcontrolar":4957,"Ġlenguajes":4958,"Ġtradi":4959,"Ø§Ø":4960,"Ġtypically":4961,"ĠWeb":4962,"Ġprobable":4963,"Ġincrease":4964,"ĠÃ¡rea":4965,"Ġclear":4966,"Ġenfermedad":4967,"Ġmathema":4968,"Ac":4969,"Que":4970,"ç½":4971,"Ġacid":4972,"Ġcour":4973,"ciente":4974,"Ġanci":4975,"Ġreac":4976,"Ã©e":4977,"ulation":4978,"Ġalto":4979,"à¸¹":4980,"ĠCor":4981,"ĠChat":4982,"ĠCSS":4983,"ĠDie":4984,"ĠDoc":4985,"aps":4986,"ioni":4987,"Ġstore":4988,"ĠÐ´Ð¾ÑģÑĤ":4989,"Ġzona":4990,"ĠðŁ§":4991,"Ð°Ð»Ð¸":4992,"Ġreglas":4993,"Ġespecial":4994,"Ġmemoria":4995,"ĠsituaciÃ³n":4996,"âĢįâ":4997,"AS":4998,"ych":4999}