#version: 0.2
e n
e s
Ġ a
Ġ d
e r
Ġ t
Ġ c
Ġ p
Ġ s
a r
o n
Ġ l
i n
Ġd e
o r
o s
a s
a n
Ġ m
r e
Ġ Ġ
u n
Ġ e
c i
t i
a l
u e
Ġ Ð
t e
Ġ y
a d
h e
i s
Ð ¾
Ġ f
Ġl a
Ġ o
Ġ un
Ġ en
o m
i c
Ð µ
Ġ q
Ã ³
t a
Ġ b
Ġ es
r o
l e
Ġ in
Ġt he
Ñ Ĥ
Ġ h
Ġq ue
Ð °
Ġ n
i t
Ð ¸
r a
Ġa n
en t
i d
Ġc on
a t
Ġ w
Ã Ń
u s
Ġe l
Ġ v
Ð¾ Ð
Ã³ n
Ñ ģ
Ã ¡
in g
i m
o l
Ġt o
ĠĠ ĠĠ
Ð ½
č Ċ
o u
Ġs e
Ġ g
Ñ Ģ
Ġ re
a m
Ġan d
e d
e c
Ġc om
Ã ©
i l
Ġp ar
Ġ E
e l
ci Ã³n
Ġ A
Ġo f
r es
i g
a c
Ġun a
Ġa l
Ġp ro
Ġ S
u l
ti on
t o
d o
t r
u r
d e
t er
Ġl os
c h
Ġt h
i r
a b
Ġ P
Ġpar a
Ġ T
Ð »
Ġ C
Ġs u
er s
e m
e t
Ġ I
i en
Ñ ĥ
Ġy ou
l o
Ġ L
Ġf or
u m
i z
l a
u t
i f
Ð° Ð
Ġ 1
m a
Ġe x
Ñ ı
Ġ is
Ġ -
o d
ic a
i v
q u
ad o
Ġn o
Ġ "
ti c
Ġde l
i b
ci on
Ã¡ s
i a
Ñ ĭ
ÃŃ a
c e
Ñ Į
Ġ (
Ġl as
ti v
Ġ M
Ġ D
a y
Ġd es
Ġa s
Ġ im
Ġp ue
Ðµ Ð
en d
en te
an t
u d
Ġ us
is t
Ġl o
Ġes t
p l
t h
i o
p or
p er
i ent
Ġp or
Ġ res
Ð¸ Ð
Ã ±
i e
ĠÐ ¿
a g
Ñ ĩ
ad a
id ad
Ġc an
Ġp er
Ġ or
Ġ B
i er
Ñģ ÑĤ
Ġ r
Ã º
Ġ 2
Ġb e
ĠE s
Ġth at
Ġs o
Ġcom p
Ġm e
Ġ on
Ġc u
v e
ĠÐ ¸
ĠÐ ²
Ġs er
Ġ j
Ġ F
Ġ H
Ġa c
Ġp r
u c
ci a
Ġm Ã¡s
Ġ Ñģ
t u
Ġcom o
g o
Ġ R
p e
a te
l y
it h
v er
Ġt e
o w
Ġ G
o c
- -
Ġcon s
Ġ it
i p
Ð º
k e
ĠÐ ½
i on
Ġq u
Ð ²
Ġh a
ti l
t s
a ciÃ³n
ĠĠĠĠ ĠĠĠĠ
Ġ =
r an
f or
i ci
Ġw h
al es
g u
Ðµ Ð½
a p
en er
por t
Ġl e
a j
Ġp re
Ġw ith
cion es
an te
s e
Ġ u
Ġa r
c es
er e
ic h
Ġa p
Ð¾Ð ²
Ġ W
Ġa re
em p
Ġc re
m o
es t
an do
g un
Ġ 3
Ġm u
Ġ N
t or
ar i
an d
Ġd is
q ue
Ġn e
Ñ ħ
Ġo b
o g
en s
er a
Ġyou r
c l
Ġ k
o p
Ġa m
Ġ U
Ð ¼
l d
b re
Ġ he
ĠÐ ¾
ĠÐ º
d en
Ġs on
i te
t os
in e
m ent
s t
a tion
Ðµ ÑĤ
l es
c r
t ar
0 0
Ġa b
Ġf r
Ġp ers
ĠE n
Ġd if
Ġp l
Ġim port
Ð ´
am b
Ġm an
id e
c u
t en
Ġt ra
ig h
Ġa d
ĠL a
â Ģ
u g
Ñ İ
Ġc h
Ġf un
ÑĤ Ð¾
Ġpue de
ĠI n
Ġ J
d a
g e
Ġc l
Ã© s
g ra
b le
Ã© n
Ġpers on
t re
Ġs i
ĠT he
Ġs ol
Ðµ ÑĢ
Ġin ter
i Ã³n
ÑĤ ÑĮ
Ġ O
id o
ð Ł
Ġ Â
ĠÐ ¼
p le
il l
Ð¾Ð »
ad os
Ġe m
Ð° Ð½
ar e
en ta
z a
Ġd i
er o
` `
ad or
Ġre c
id a
t ra
d es
Ġt u
' s
Ġc o
l l
Ġ i
Ġp os
om e
Ġ z
m e
ou ld
ĠÐ ´
ient o
tion s
Ġu til
m ente
c ul
Ð½ Ð¾
Ġ ðŁ
Ġ 4
Ġc al
Ġs ig
ab le
Ð ¿
ĠÐ¿ ÑĢ
Ġ V
Ġc ar
Ġm a
am e
d ad
Ð¾Ð ¼
Ġt r
Ġ 5
c on
Ġp o
en cia
Ġw e
f er
Ġd a
Ã¡ n
Ġt ien
ic o
ec es
p a
al l
amb i
t ro
as e
Ġ Ñ
Ġutil iz
" ,
ĠE l
as s
Ġh ab
Ġo p
ĠT h
Ġe j
b er
i ta
al iz
a v
Ġ *
u es
Ð½ Ñĭ
Ġe le
t es
n e
d uc
Ġc ol
Ġ ÑĤ
Ġm od
Ġc or
Ġh ac
Ġes ta
Ð¾Ð ³
Ġs us
te d
y s
in a
Ġb y
it y
ou r
Ġh as
Ġm ed
ac h
Ðµ Ð»
m as
Ġin cl
ï ¼
u er
Ġv er
c o
Ġres p
ĠU n
igh t
Ġ ro
Ġm o
Ġha ve
is te
i es
-- --
g a
Ġa t
Ġp od
Ð°Ð º
t as
Ġ ÑĢ
re c
or e
ÃŃ s
ar d
th er
Ġob j
tic a
Ñ Ī
un d
f ic
Ð ·
f ici
p res
Ġv ari
Ġso bre
Ġs in
Ġpro gra
Ð¸ Ñı
Ġun d
ent es
u re
Ñ Ĩ
f ec
i le
Ġm ay
ar a
Ð¾Ð ´
Ġfr om
Ġs h
s o
Ġa y
Ġmu ch
j or
ag e
Ð ³
u b
Ġe v
Ġn eces
p os
o ci
Ġp a
Ġc Ã³
o t
k s
Ġay ud
r end
g en
Ġme jor
Ġen tre
el l
Ð¸ ÑĤ
Ġal gun
Ġpue den
en ti
Ġ Y
pe ci
Ġg ener
or d
ma ciÃ³n
Ġpr in
r as
Ġde b
Ġin for
Ġs al
Ġp e
ad as
c a
ä ¸
Ġv al
ĠÐ ±
Ã± o
ul t
ul ar
m in
Ġ Ñĩ
Ġd o
y th
Ġt i
ĠA l
ambi Ã©n
ÃŃ as
Ãº n
Ġh ay
ol og
Ð¾Ð ¹
pl ica
is ta
ĠÐ½ Ð°
Ð¾ ÑĢ
ib le
Ð ±
m os
Ġf in
idad es
ec h
es s
Ġ <
Ġs im
Ġp as
d i
Ġ K
g r
n o
Ð° Ð»
Ġg o
Ġdif er
al ly
tr os
f t
ar io
a k
am ente
Ñģ Ñı
tr uc
ÐµÐ ¼
Ġth is
i os
Ġ #
Ð¸Ð ¼
Ġ {
ou t
Ġm at
Ġ ra
or es
Ġ 6
te m
Ġw or
p s
tiv e
u y
ĠÐ ·
Ġ if
en ci
emp lo
d os
Ð¾Ð ¶
u ra
ien te
Ġno t
Ġp res
i ti
Ġ Ã
Ġper o
Ġc as
ã Ģ
d u
Ġg ran
ue go
ĠĠĠĠ Ġ
Ġg r
ï¼ Į
Ġre g
Ġus e
an a
lo w
Ġg ra
Ġv e
qu ÃŃ
Ġc ap
Ġin v
Ð¸ Ðµ
Ġcomp le
ant es
at os
ĠÂ ¿
p ec
Ġm is
Ġhac er
yth on
Ġfor m
Ġp ol
Ð¾Ð ½
u al
Ġin te
Ġimport ante
Ġre la
Ã± os
Ġm in
ue v
Ġ Ñĥ
u p
Ġt er
on e
Ġ âĢ
Ðµ Ñģ
Ġw as
p end
Ġda ta
Ġm i
Ġej emplo
ci p
ac k
Ġex per
Ġt em
aj e
ĠP or
ran s
Ð° ÑĤÑĮ
Ð°Ð ¼
i al
Ñ ī
an o
Ġm en
Ġh er
) .
Ġm ore
emp o
a z
) ;
c k
Ġt en
Ġl l
Ġs iste
Ġb as
j o
`` `
re d
ic e
Ġ }
Ġt ener
ÐµÐ ´
ent o
Ã ¤
en a
ĠTh is
Ġc ada
p h
ar ro
Ġl ib
tiv o
Ġc os
Ġpro ces
d er
Ġd er
ce p
tu ra
n a
Ġam b
Ġa v
o k
ĠR e
f in
t ur
im e
Ġthe ir
ien do
Ġ er
on s
Ġhe l
en ce
Ð» Ð¸
Ġpl an
c ar
us t
Ã ¼
Ġin d
Ġmod el
Ġpro v
w e
Ġde ci
Ġl es
ÑģÑĤ Ð²
ig o
iv ers
Ð° ÑĤ
v el
a ci
er g
p ar
ç ļ
Ð¾Ð ±
çļ Ħ
Ġsig n
Ġs ome
Ġfor ma
Ġwh ich
ic os
an ce
id er
Ġti empo
Ġ ```
Ġl i
l ar
t ing
Ġ [
Ġb u
ĠA n
Ġper m
Ġh um
p ro
Ġre qu
ac e
Ġf e
es e
Ġe qu
Ġap rend
cr ip
Ð» Ñı
Ġc am
Ġt ambiÃ©n
le c
Â ¿
Ã ¨
ic as
Ð°Ð ²
Ġc r
Ġv ida
ĠS e
Ġ '
ĠÑ į
iv e
j a
Ġt rans
Ġes te
Ġayud ar
Ġd ie
Ġm ar
ĠD e
ec t
ĠS i
for m
on g
Ġin s
Ġ Ã©
Ġo ther
it ar
x t
Ġc a
tic as
Ġsu ch
ig n
t in
it o
Ġw ill
ed ad
f r
Ã© r
Ġpue des
Ġd atos
Ġ +
b aj
Ġpr im
u z
Ġa ut
tiv a
Ġ 8
Ġest Ã¡
b r
Ð°Ð ·
z ar
tr ar
i x
ys tem
Ġe t
Ġy a
Ġb ut
Ġdes arro
en e
Ġmu y
Ġd on
Ġpod r
Ġd os
Ð¾ ÑĤ
ti r
p r
b ar
l as
Ð¾ Ñģ
Ġ1 0
on es
d as
_ _
g ar
Ġs t
ic ar
Ġh ist
Ġt us
Ġ 0
Ð¸ Ð½
Ġal l
cr ib
k o
ta in
Ġpro duc
Ġd ur
Ġm as
p o
Ġpro ble
de m
c tion
ÑĢ Ñĥ
Ġso ci
Ð ¶
p i
Ġn um
ĠC on
Ġ 7
if ica
ÐµÐ º
Ġ2 0
at ur
Ð¾Ð» ÑĮ
/ /
es ti
Ġl le
ic al
Ġu p
un do
Ġtra baj
al e
Ġs ta
Ġn i
Ġv is
Ġo tros
L a
Ġp la
Ġl en
v en
n ow
ĠI t
) ,
Ġcon oci
l os
Ġwe b
Ã ł
ar y
al mente
Ġtien e
Ġhel p
Ġb o
Ð¸Ð ²
Ġt om
Ð¾Ð³ Ð¾
c he
tic o
l ic
Ġser v
Ġrec om
an s
ip o
Ġne ed
or a
Ġpre gun
ĠĠ Ġ
Ġw ould
ÐµÐ ¹
Ġthe y
Ġp at
al s
am ple
i or
Ġ ide
Ġcons ider
Ġal so
ĠA s
g an
ue l
Ġl ÃŃ
tiv os
c tr
Ġa u
os t
ĠP ython
ĠÐ °
ãĢ Ĥ
il idad
ac ter
h at
in t
c re
ar n
an to
c om
w are
ĠL os
ÑĤÐ¾ ÑĢ
b ol
Ġb r
Q u
Ġ id
ient es
Ġman era
i re
l ig
Ġd ist
Ġne w
Ġhas ta
Ð¸Ð ·
ug ar
Ġli ke
Ġprin cip
n olog
in o
Ġm undo
Ġcre ar
Ġpro f
Ġen erg
a x
p on
ĠÐ½ Ðµ
Ġf il
ĠN o
d igo
k ing
p en
Ġ1 9
Ġperson as
ra c
Ġan y
ion es
Ġdi rec
um ent
Ð¸Ð º
ĠÐ ³
Ġe in
Ġ Ã¡
Ġus ing
Ġa gu
ci o
i el
Ġex pl
v a
or ia
Ð¸ Ð¸
tr as
Ġcu al
E l
an g
Ġus ed
Ñ ĸ
us e
---- ----
Ġsiste ma
( )
Ġl ar
ador es
h er
" .
z e
Ãº s
b a
m s
u ro
b o
ÃŃ cul
ĠÐ¾ Ð±
Ġn uev
Ġcom m
ĠcÃ³ mo
t on
Ġb et
Ð¸ Ñģ
Ġs peci
Ð¸ Ñĩ
Ġcon f
Ġdif fer
aliz ar
Ġc ould
Ġco de
Ġele ment
ĠcÃ³ digo
r y
Ġk now
Ġab out
Ġdifer entes
Ġ ke
Ġf ac
Ġ x
er os
Ġres ult
m iento
pa Ã±
w n
Ġt ec
en o
Ġcom un
Ġth ere
Ġit s
Ġinfor maciÃ³n
a ciones
Ġs ystem
am os
at ing
un g
Ð ¹
Ġt ime
ĠA r
Ð° Ñģ
h r
Ã ¶
ĠÐ »
Ġz u
qu es
ÐµÐ½ Ð¸Ñı
Ġsu b
t y
Ð¸ ÑĤÑĮ
Ġo ut
Ġh o
r os
Ġcu enta
ur s
Ġsu per
ĠD es
ĠY ou
ã ģ
ra m
er v
Ð¾Ð ·
Ð° ÑĢ
Ġg u
Ġincl uy
i as
Ġo ver
Ġlen gu
Ġes peci
Ġobj e
Ġsol o
at o
ol a
Ġse g
ĠP ro
Ġon e
dem Ã¡s
en do
i ar
Ð¸ Ñħ
ter n
Ġen con
Ġ 9
Ð¾ ÑģÑĤ
am iento
g et
ä »
ĠC om
Ġc er
Ġb us
Ġin to
crip t
f f
j as
cion al
u est
Ġd ar
Ġl im
Ġac tu
om bre
a il
f ul
i Ã³
ent s
Ġse gu
Ġalgun os
. .
b e
p ut
ec u
Ð¸Ð ¹
l u
Ñ Ħ
Ġ $
Ġpos i
Ġre al
Ãº m
or m
Ġh ow
Ġ Z
ab les
] [
c al
ä º
it s
ĠÐ² Ñĭ
Ġun o
Ġcon tro
' t
Ġa plica
ĠĠĠĠ ĠĠ
Ġpro te
ĠÐ¾ ÑĤ
Ġexper ien
p re
Ġmay or
Ġes to
Ð½Ð¾ ÑģÑĤ
Ġmat er
Ġma ke
å ı
Ġo per
) :
Ġde pend
ĠS in
x im
at er
Ġc he
Ġin g
Ġp op
Ġb ien
Ġfun ciÃ³n
w o
Ġt y
Ġm us
ci as
Ġthe m
c ed
Ġin st
Ġre f
ĠEs to
Ġcu ando
Ġsig u
Ġve z
end er
ol u
t t
enci as
Ġf o
ĠH ow
w s
Ġv ol
ec tor
Ġem bar
Ġc i
ic k
( "
Ġen tr
ient ras
ari os
a ti
Ã¡ l
Ñĥ Ñĩ
Ġw ay
f ica
Ġm et
Ġperson a
im iento
Ġto do
Ġal g
Ġcon tin
Ġg us
iz e
ug h
Ġl ugar
Ġm y
Ġn atur
e p
m Ã¡
Ġl uz
Ġv o
ĠE x
æ Ī
ÃŃ n
Ñİ ÑĤ
ÃŃ an
ci l
Ġprogra m
Ġ Ãº
Ġc ur
Ġin f
it u
Ġfun ction
Ġ Ñı
Ġc ent
Ġs ab
ar se
e x
v ers
Ġh is
tr ib
Ġto dos
Ġex ample
ĠÑĩ ÑĤÐ¾
Ġp un
Ġn Ãºm
Ġembar go
Ġqu ier
2 0
h o
j e
le d
iv id
ient os
Ġdis e
1 9
Ġest os
ĠÂ ¡
a ke
in d
Ġde m
Ġus ar
ti dad
ad e
ĠI f
i k
Ġp el
ar t
Ġf ol
Ġse a
Ġqu Ã©
Ġf ue
Ð½ Ð°
ĠL e
Ġex ist
Ġar ti
v es
Ġsu p
Ġus u
Ġg et
Å Ĥ
an n
ag es
l lo
Ġa Ã±os
or t
ĠA m
ä ½
Ġl ista
c er
i an
Ġg e
ation s
tur n
Ġcons t
Ġcal cul
Ġtien es
Ġin t
ĠA demÃ¡s
g er
Ġv ers
as t
qu ier
Ġim p
ĠÐ¸ Ð·
ate d
Ġal go
o b
p la
el y
ac t
g re
os e
Ġe f
ĠÐ µ
Ġele ctr
Ġprogra maciÃ³n
Ð¾ ÑĤÐ¾ÑĢ
Ð½Ñĭ Ñħ
E s
Ð¾Ð º
il d
b l
Ġan im
Ð°Ð ´
Ġagu a
Ġest ud
g os
u ch
an cia
Ġb l
ues ta
ft ware
iv o
il ar
Ġle arn
00 0
Ġimport ant
we en
E n
g h
Ġm ientras
Ġpro por
ti m
t al
an ge
ci Ã³
Ġdes de
Ġll am
Ġaprend er
e ver
Ġis t
Ġtec nolog
c an
am il
in s
Ġas ÃŃ
Ġwh en
ĠÐ¼ Ð¾Ð¶
Ġsign ifica
ÐµÑģ Ðº
Ġbet ween
Ġs p
Ã³ g
Ġher ram
Ġfac tor
Ġe fec
it or
Ġencon trar
Ġs tar
av a
Ġwor k
* *
Ġs enti
Ġm ag
Ġf uer
Ġth ese
i ed
Ġes pec
id os
Ð½Ñĭ Ðµ
u de
z o
it os
am ent
Ġe con
Ġh an
im ent
Ø §
Ġe ach
Ġm Ã©
Ġn a
Ġqu es
' ,
ç Ķ
ĠM ar
Ġc e
Ġar ch
Ġgener al
Ġt wo
Ð°Ð ¶
Ġwh at
Ġde ter
Ġh igh
ing s
Ġre turn
em os
Ġt anto
Ġde fin
Ġn os
ou gh
il idades
Ġest Ã¡n
ÐµÐ» ÑĮ
Ġcon cep
Ġtien en
Ġmuch os
Ġtem per
Ġa quÃŃ
on a
Ġm on
Ġv a
ud ad
ĠlÃŃ ne
T he
c el
s a
Ġo tro
Ġh or
ĠEs te
Ġcol or
ĠP ara
cion ar
Ġdur ante
Ġdiffer ent
Ġpop ular
Ġa f
ien ta
ĠEs ta
Ġ ÑģÑĤ
Ġsh ould
Ã ²
ĠÐ Ĵ
Ġcomp r
ĠĠĠĠĠĠĠĠ ĠĠĠĠ
Ġsol u
Ġdesarro ll
c ur
Ġt ipo
Ġac tiv
ĠA d
Ġpro p
Ġs tr
Ġl ist
tic os
Ġp al
Ġm em
I n
g es
fici al
Ð½ Ð¾Ð¹
Ġlengu aje
e g
y ec
Ġd ÃŃa
Ġc ambi
vel op
Ġp oc
Ġm ate
Ġun ivers
Ġcom b
Ġpar te
Ġ Ã©s
is h
Ġg ro
Ġso ftware
Ġl et
Ã³ m
Ġcan tidad
Ġmejor ar
= "
Ġd oc
u ir
Ġde f
Ñģ Ðº
pl es
â ł
id as
ĠUn a
on o
Ġpod er
re e
Ġpue do
at or
ul ti
Ġj uego
cu ent
Ġcar acter
pos i
Ġ |
Ġb ec
at es
Ġt as
Ã© c
ĠL as
ĠF or
Ġprin t
u ta
Ġb lo
ro ugh
ul a
ĠC h
Ġmo v
Ġalgun as
Ġproces s
Ġdon de
if ic
Ġj ug
Ġutiliz ar
Ġinfor ma
Ð° ÐµÑĤ
res s
ĠÑģ Ð²
tu re
Ġmis mo
Ġd en
ar ch
l ich
Ã §
Ġp es
Ġe ta
Ġci udad
an gu
ta mente
Ġpre ci
Ġtra v
Ġutiliz a
h en
j os
Ġcre ate
Ġpe que
l ti
Ð¸ ÑĢ
Ġcon di
ĠÐº Ð°Ðº
Ġhum an
Ġhist oria
Ġp ub
ĠlÃŃne a
Ġs ur
is e
Ã³ r
tion al
Ġth an
Ġ `
ue des
Ġb Ã¡s
Ġtrav Ã©s
Ġ il
Ġf ÃŃs
el f
Ð°Ð ¹
Ġor den
Ġwh o
ĠÑĤ Ð°Ðº
æ ľ
ic s
ues to
Ġ //
Ġb ase
Ġre pres
t and
Ð¾Ð ¿
ĠA quÃŃ
Ä Ļ
er n
Ġf amil
Ġpro yec
Ġte or
ar s
in es
ĠÐº Ð¾ÑĤÐ¾ÑĢ
Ġman y
â ĸ
ier ra
Ġcor rec
Ġtemper at
Ġs tor
ĠÐ´ Ð»Ñı
Ġf u
Ġen cuent
ow er
ÐµÐ½ Ð¸Ðµ
Ġhac e
Ã¡ c
per o
Ġwh ere
ĠHow ever
d s
Ġdeb e
in k
un t
ci r
ir st
Ġh and
Ñĭ Ðµ
Ù Ħ
Ġf ile
us tr
um en
Ġpla y
w or
Ġm ant
Ġe d
Ġen v
Ġv ide
Ġpar ti
Ġs c
om a
Ã¡ g
Ġp i
Ġm Ãºs
Ġcap aci
Ġcual quier
Ġs te
Ġre du
il ity
Ñĥ ÑĤ
ĠB e
un a
Ġdes e
ĠÑĢ Ð°Ð·
tic al
Ġte x
Ġm om
Ġus o
j ar
n i
s ist
Ġ um
Ġt ech
Ġv el
Ġv ector
Ġcomp ar
Ġpa ÃŃs
Ñ ĳ
ĠÐ± Ñĭ
iti es
Ġespec ÃŃ
Ġpal ab
u x
y m
Ġc ul
om o
ra te
Ġwh ile
âĢ Ļ
Ġcontro l
Ġl ong
ic es
Ġb ar
Ð¾Ð² Ð°Ð½
Ġ* *
Ġresp on
Ð°Ð» ÑĮ
å ¤
Ġth en
Ġpos s
Ġenerg ÃŃa
Ġde velop
Ġdes cu
Ġpos ible
Ġmin ut
Ġind ivid
Ġ â
iv el
ÐµÐ ²
Ġor ig
+ +
Ġm il
Ġf Ã¡
Ġes truc
Ġse lec
ab a
ces s
u res
Ġf ut
Ġresp uesta
Ġgo od
l i
Ġ X
Ġs itu
Ġen t
et s
Ġsim ple
lar o
ĠnÃºm ero
Ġs k
om b
ch o
Ġth rough
ĠP ar
emp re
Ġmuch as
Ðµ ÑģÑĤÐ²
Ġse t
Ġpar t
Ġch ar
Ġspeci fic
Ġmate mÃ¡
N o
t ener
ĠJ ava
å ħ
or y
Ġw ant
ÐµÐ ³
ier e
Ġa j
Ð° ÑĨ
Ñģ Ð¿
Ġid enti
p u
Ġm ol
Ġinte gr
j s
ra me
ĠH ere
ion s
Ġpoc o
Ġma in
our ce
Ġor gan
op le
Ġinter es
v is
Ġp h
ĠT ambiÃ©n
ers tand
ĠB r
ĠÑģ Ð»
C laro
as es
it al
in ar
it as
Ñĥ Ñİ
o y
v al
Ġs he
Ð° Ñı
Ð° ÑģÑĤ
et os
Ġad d
Ġtr ad
Ġprov ide
Ġfol low
. "
a f
t ud
Ġo tras
ter s
â £
Ġm it
Ġen s
Ġest ar
Ġincl ud
Ġval or
c ol
Ð¸ Ð»
Ġpar tic
ib les
urs os
Ġvel oci
: //
Ġm ost
Ġhab ilidades
Ġdeci s
p y
y n
er ci
Ġin de
aj es
Ġnum ber
Ġpregun ta
Ġs w
Ġm ulti
ĠC re
Ġem pres
Ġsim ilar
æ ĺ
Ġm es
Ġam pl
Ġs m
ĠS ie
ĠG o
Ġcl ass
Ġes crib
Ġdeci r
Ġperm ite
Ð¸Ñĩ ÐµÑģÐº
1 0
Å ¼
re at
il la
Ġcas o
r en
ĠÐ ¶
Ġan tes
Ġv iv
Ð°Ð ¿
Ġbe en
Ġsi empre
Ġdesarro llo
Ġre alizar
ĠT o
ip os
âł Ģ
Ġd u
Ġc ir
Ġm er
Ġw ell
Ġ1 2
Ġund erstand
c as
å Ī
Ġ \
Ġd iv
ĠA I
ici os
Ġc oc
an z
Ġin c
Ġn ivel
ec e
è ¯
Ð½ Ð¾Ð³Ð¾
Ġre ci
Ġest as
Ð¼ Ð¸
ĠÑ Ħ
Ġsal ud
" :
r or
ro und
ĠÐ¿ÑĢ Ð¾
Ġ era
Ġw r
w er
ra g
Ġpro du
cion a
Ġdes ign
Ġayudar te
it es
ur as
w w
Ġa le
Ġd om
Ġim ag
Ġalg or
a ta
Ä ħ
ar te
un que
Ġcon tra
ĠÐ¿ Ð¾
Ġaplica ciones
Ġse l
od y
ion al
Ġpe ople
ä¸ Ģ
Ġelement os
Ã± a
Ġl angu
tiv as
Ġle y
Ġinte lig
trib u
m an
Ġfin d
Ġt are
ĠmÃ© to
ta ble
id es
Ġcon ten
ĠS ch
Ġobj etos
am a
ĠC ol
Ð°Ð ±
ĠM e
Ġr un
Ġrecom end
Ġke y
å Ĭ
Ġo tra
Ðµ Ñĩ
Ġpol ÃŃ
Ġteor ÃŃa
Ġ ir
Ġres umen
ĠÑį ÑĤÐ¾
Ġtecnolog ÃŃa
ĠmÃºs ica
Ġp an
Ġr ad
ĠAl gun
Ġinforma tion
Ġs ido
ĠÐ Ł
Ġex pres
Ġmed i
ãĢ ģ
Ġinv esti
ĠâĢ ¢
Ġca us
Ġcapaci dad
ĠP er
ÐµÐ½ ÑĤ
Qu Ã©
M L
Ġf l
Ðµ ÑģÑĤ
Ġmuch o
Ġpodr ÃŃa
Ġproble mas
Ã³ s
ent ar
oc a
ÑĢÑĥ Ð³
u a
v o
Ġ /
ar ia
ens iÃ³n
Ġsiste mas
Ġide a
tt ps
Ġd r
ow n
Ġdeter min
it en
iv a
w ay
ä ¹
er as
ĠÐ Ŀ
Ġg ame
em ent
ment s
Ġtrabaj o
Ġau f
ĠÐ¼Ð¾Ð¶ ÐµÑĤ
ich t
Ġ Ãºn
ĠP r
Ġex tra
ÐµÐ ·
ant s
ĠW e
Ġobj ect
Ġayud a
Ġwor ld
ec ts
Ġpro b
fec t
Ġt or
Ġs ÃŃ
ĠH e
Ġarti ficial
Ġp ass
Ġf irst
Ġet c
Ð¾Ð»ÑĮ Ð·
o us
s elf
å ®
Ġt ur
Ġb el
âĢ į
Ġsol ar
Ġprof es
Ã©c n
P I
Ġ :
Ġt ake
in do
ci d
Ð¿ ÑĢ
Ġty p
s h
v ent
Ġa z
os o
ue gos
Ð¸ ÑģÑĤ
Ñĥ Ð´
ĠO pen
Ġtr y
Ġop en
Ġmen os
å Ĳ
Ġe ine
it er
Ġw ere
Ġto das
Ġon ly
Ġs ue
Ġe mo
Ġh ad
Ġcons e
Ġap ro
Ġl ado
Ġper form
ÃŃs ticas
C u
n en
Ġ Ø
er t
ter na
Ġcons um
Ġle g
Ġaut om
k et
Ġp ap
Ġp ower
ra y
ica ciÃ³n
for e
âĸ Ī
ĠfÃ¡ cil
j ect
Ġd ass
Ġb aj
it ch
iz aje
Ġmed io
Ġb re
Ġal low
Ġj ust
Ġcas a
Ã¼ r
Ġsigu iente
a u
c le
m m
ĠEs pero
Ġmater ial
çĶ ¨
h od
Ġt Ã©cn
an ti
Ã¡ m
Ġ1 1
Ġdes crib
âĢ Ŀ
Ġutiliz ando
l ine
Ġd as
Ġd ay
Ġs ens
Ġes ti
us s
Ġre fer
Ġperson al
Ù Ĭ
Ġn ombre
Ġcon j
Ġj un
Ġte xt
sist ant
Ġcom en
ĠC u
Ġresp ons
Ġentr en
c ent
e ta
Ġ os
Ġc ell
Ġp rac
Ġes cr
ĠT e
Ð½Ñĭ Ð¹
Ġaprend izaje
) )
Ġd ig
Ġc la
ĠÐ¿ Ð¾Ð´
ĠN e
Ġpel ÃŃcul
Ġvide o
æĺ ¯
v ing
Ġm ill
Ġap pro
Ġinf lu
f o
i ales
ĠÐ ŀ
Ġb i
Ġes paÃ±
Ġv ir
lo ad
Ġpre fer
Ġob s
Ġimport antes
Ġmodel o
c t
Â ¡
Â »
ar m
Ġv on
Ġg al
Ġre d
Ġim ple
ke y
Ġrec ursos
Ġcontin u
è ¿
Ġw ater
ĠS ol
ĠÐ¸ Ð»Ð¸
ĠH T
port un
Ġdis posi
Ġob tener
Ġlib r
n er
an y
al la
Ġex p
ĠF in
Ðº Ð¸
Ġad ecu
æĪ ĳ
ĠÃº til
Ġ ig
Ġn uest
ÃŃ o
Ã¡ p
Ġar g
Ġseg ur
Ġorig in
Ġes e
le ase
Ġan al
Ġ1 5
Ġbu ild
Ġtom ar
Ġd in
Ġs or
Ġm Ã©s
Ġpro pi
ĠfÃŃs ica
f ico
v ia
z en
Ġ Ñħ
Ġp ens
ĠÐ ¡
ul o
ĠT ierra
ĠW hat
Ġc ab
ad r
Ġn ame
Ġv ia
Ġse gun
ient as
Ġfun d
Ġpo ten
ÑĨ Ð¸
v an
Ġlo c
ĠÐ´ ÑĢÑĥÐ³
Ġpo de
en g
ĠÐ¿ Ð¾Ð»
enta ciÃ³n
ä» ¥
Ġelectr Ã³n
( '
in as
Ġde ber
ol d
ol s
Ġcre a
Ġsoci al
Ġmet hod
âłĢ âłĢ
Ġ .
ÑĤ Ðµ
Ġ1 8
Ġcal idad
t m
er te
Ġt res
Ġo l
um n
Ġne ga
ĠÂ «
Ġproces o
Ġarch ivo
Ġa Ã±o
Ġse e
et y
og le
Ġesta ble
__ __
Ġinclud ing
" )
Ġb ack
ĠA PI
ĠP ero
ib ilidad
Ð¸Ð ´
-------- --------
Ġresult ado
Ġactu al
Ġsm all
H ola
a ve
Ġt ar
Ġt al
our ces
ci al
is mo
Ġes c
le v
Ġh i
Ġh ard
at h
at s
ch a
ĠÐ¸ ÑģÐ¿
Ġpas os
Ġmom ento
Ġlangu age
c ado
w ord
te xt
Ġes p
ch en
if e
pl y
Ġme z
ĠâĢ Ķ
Ġsegu ir
Ð½Ð¾ÑģÑĤ Ð¸
Ġlearn ing
pu Ã©s
] ,
f ÃŃa
n ame
in aciÃ³n
Ġo wn
Ġcl im
Ġsel f
ic an
Ðµ Ðµ
ien cia
Ġlo gr
Ġinv ol
b as
p p
v ed
Ġof f
ĠEs tos
ĠÐ¸ Ð½
Ġdis pon
ĠâĢ ľ
Ġdescu br
u f
Ġo c
Ġal m
ĠÐ¿ ÐµÑĢ
Ġ2 00
ĠÑģ Ð¾
Ðº Ñĥ
ion e
Ġequ ipo
on d
ol ver
ier to
Ġcos as
Ġbo th
Ġobje to
Ġb est
ĠÑį ÑĤ
.. .
Ġecon om
P or
Ġe ver
Ġes pa
od r
Ġres ul
ĠÑ Ĩ
av or
ĠÃ ł
Ä ĩ
Ġs ame
Ġm al
Ġf a
ÃŃ m
Ġcu er
ici o
â£ ¿
Ã £
å Ń
en ces
Ġd own
os a
is s
Ġun os
Ġel s
Ġle ad
Ġtra in
Ġnuev o
Ġincluy endo
b or
u do
z y
en se
Ġd ir
Ġd ivers
Ġt ak
por ta
Ġpor que
uer ra
Ġcomple x
Ġlle v
ĠÃº lti
Ġdise Ã±o
Ġherram ientas
Ġveloci dad
b les
Ð¾ Ñĩ
Ġen c
ĠE uro
Ġ1 00
Ġbe ing
Ġpr Ã¡c
Ġqu i
Ġbu ena
Ġlar go
Ġknow n
Ġent ender
Ġel los
ĠEs paÃ±
ĠAn d
ĠHT ML
D e
l io
l and
Ġes per
Ġg ar
iz ed
pl os
Ðº Ð°
l ab
å Ĵ
Ġen d
Ġh uev
el s
ĠA c
ie w
Ġpr om
Ġcor r
Ġincl ude
fici ente
c ciÃ³n
z as
ĥ ½
ti tu
Ġf re
Ġam or
ite d
Ð°Ð¼ Ð¸
Ġsign ific
Ġproble ma
ÐµÐº ÑĤ
Ġsab er
Ġmant ener
Ġsegur idad
er ÃŃa
Ġc amb
Ġs ich
Ġin put
tic s
ier en
Ġr Ã¡p
Ġvari os
Ġvari able
Ġmus ic
Ġinst al
Ġquier es
Ġpalab ras
åĴ Į
h ing
Ġa ir
Ġt end
al th
Ġen g
Ġpro g
Ġce bol
t om
â ķ
Ġa pl
on t
Ġl ine
Ġe cu
Ġb at
le x
Ġn orm
Ġr ange
ĠÃ¡ re
Ġtex to
' m
i que
Ġe as
Ġf avor
ce ite
Ġpre par
Ġdif ÃŃ
Ġdeb ido
Ġexperien cia
Ġnatur al
d ic
k en
r ent
Ð°Ð ³
ient ÃŃ
Ġcons truc
' re
c y
Ġc ientÃŃ
Ġpro per
Ġcaracter ÃŃsticas
Ġconj un
b ers
m ar
m ientos
å ľ
Ġ ÑĤÐ¾
Ð° ÑİÑĤ
Ġv i
ĠS u
ĠP l
ĠL o
if icar
ĠR ec
fic os
Ġ< /
pen de
Ġseg Ãºn
Ġtemperat ura
n et
Ġin cre
ol Ã³g
ĠS o
ĠI A
ite c
enta jas
Ġcam po
ff e
Ġminut os
Ġestruc tura
< /
i ciÃ³n
n ing
Ġ Ù
Ġt ro
Ġl ight
Ġun e
ig os
Ġab s
Ġgran de
Ġpat r
Ġfactor es
Ġintelig encia
Ġfund ament
Ñı ÑĤ
Ġim pro
Ġlo ok
Ġcu Ã¡n
Ġbas ed
Ġlar ge
Ð½Ð¾ÑģÑĤ ÑĮ
P ara
g in
k er
l la
m en
Ġc in
Ġf el
Ġan s
ul l
ĠP re
ĠC al
em plos
Ã¶ n
ĠÐ¸ÑģÐ¿ Ð¾Ð»ÑĮÐ·
g aciÃ³n
Ġa h
Ġd ud
Ġt Ã©r
Ġe duc
Ġan ti
les s
Ġinter ac
olog ÃŃa
Ġconoci do
Ġprac tic
Ã£ o
Ġc op
Ġs om
Ġest ado
Ġap plica
Ġalgun a
Ġni Ã±os
Ġig ual
S cript
U n
Ġ ][
ter ior
ir on
Ġest Ã©
Ġop tim
Ġgran des
åı ¯
Ġorgan iz
I N
Ġp ack
Ġde v
ch ar
ĠThe y
Ġusu arios
Ġchar acter
Ġintegr al
h l
æ Ĺ
ti ene
ent ro
Ġcon v
Ġcon vers
Ġas s
Ġas eg
ĠÐ¼ Ð¾Ð³
Ġev ent
Ġfin al
ĠÃ ¨
ĠÃ© l
Ġherram ienta
Ġinde pend
W hat
æ ĸ
or s
Ġcon ver
Ã© ctr
et as
ÐµÑĤ ÑģÑı
Ġch o
Ġescrib ir
indo ws
" >
S T
Ġp Ã¡g
Ġo der
Ðµ ÑĪ
Ġre aliz
Ãº bl
Ġ= =
Ġ3 0
Ġad ap
rend er
Ġty pe
tm l
Ġ Qu
in ux
ĠÐ ļ
ĠE r
Ġcomp ut
Ġej emplos
Ġcol ores
Ġusu ario
Ġpub lic
Ġposs ible
1 2
5 0
u tr
ä ¾
ad es
Ġf al
Ġse m
Ñĥ ÑĢ
ib r
Ġpr iv
Ð¾Ð² Ð°ÑĤÑĮ
ĠW h
cl us
Ð³ ÑĢ
Ġev en
Ġca f
1 8
c os
Ġb ro
ĠM o
ÐµÐ ±
Ġbe h
Ġk ann
Ġcl ase
ĠÐ¿ÑĢ ÐµÐ´
f y
Å Ľ
è ®
è ĥ½
Ġa g
Ġp ad
ti s
ta t
Ġcon t
ĠP uedes
Ñĭ Ñħ
tiv idad
Ġr is
ĠÐº Ð¾Ð½
Ġcal or
Ġneces idades
Ġpartic ular
Ġtare as
ĠmÃ©to do
ĠEspaÃ± a
Ġd Ã©
ta c
Ġg en
ist as
Ð¸ÑĤ ÐµÐ»ÑĮ
Ġdo es
Ġdifer encia
Ġexper iment
Ġempres a
c ra
Ġc at
Ġm ach
Ġf uego
Ġac ces
Ġbus car
ĠespaÃ± ol
n ess
Ã Ł
å º
en n
Ġa round
Ġm ass
Ġb al
Ġre v
Ġcomp on
ĠĠĠĠĠĠĠĠ ĠĠĠĠĠĠĠĠ
Ñħ Ð¾Ð´
Ġvari edad
Ġplan eta
Ġpregun tas
Ġconten ido
E x
T h
t le
is is
Ñĭ Ð²
Ġres ist
Ġser ÃŃa
ĠÐ¾ Ñģ
Ġma king
Ġval ores
iel d
O N
a use
Ġa tra
Ġa unque
Ã³ mo
Ġel Ã©ctr
im ientos
Ġre lig
Ġj o
Ġac or
Ġindivid ual
g as
å °
ti es
ad amente
Ð¸ Ñİ
Ġcon oc
ig ura
ĠÐ¿ Ð¾Ð¼
Ð½Ð¾ Ðµ
Ã©r ica
Ġst ud
Ġpart ÃŃcul
â£¿ â£¿
ĠtÃ©r min
Q ue
ĠJ o
Ġem pe
Ġele g
Ġtem a
Ġpat tern
Ġexpl or
Ġproyec tos
A quÃŃ
l Ã©s
Ġt an
Ġde pende
ti do
Ġg ive
ĠEs t
ĠIn s
Ġpo t
Ġprim er
Ġtas ks
Ġs cript
ĠÐ Ķ
Ð¾ Ðµ
Ġof ten
Ġmu est
di tion
ĠAs sistant
b al
u le
w ard
Ġa que
Ġp our
ĠÐ Ĳ
ĠÐ Ń
Ġf lu
Ġb ene
ÑĤ ÐµÑĢ
Ġto p
Ġcons tr
ici dad
Ġcl ar
Ġprogra ma
Ġfe w
Ġsoci edad
Ġcomm on
ton ces
ĠGo ogle
c la
d iv
Ġb ot
Ġest re
ĠðŁ ĺ
Ġind ustr
Ġni Ã±o
Ġpun to
ĠJava Script
Ġa ceite
Ġd ÃŃas
ar on
Ġm Ã¡
Ġex t
Ġev itar
Ġpa ta
Ġprincip ales
æľ ī
Ġcebol la
S i
h ip
m ed
r Ã¡
v il
Ã ª
en de
un gen
ĠÐ ĺ
Ġh ere
ed or
Ġas pec
Ġdis fr
Ð´ Ð°
ĠV er
Ġreg ular
Ġgra v
Ġrequ ire
Ġecon Ã³m
Ġs to
Ġm ent
it ing
it ud
Ġel se
Ġcom e
ab r
ib lio
ĠÐº Ð¾Ð¼
Ġem p
ĠTh ese
Ġval ue
Ð¶ Ðµ
Ġprincip al
Ġimp ac
Ġunivers o
l ing
Ġa gre
Ġs enci
Ġm ight
Ġy e
Ġha cia
Ġab le
Ġmed ida
Ġide as
ĠÐ» Ñİ
Ġcul tura
a in
m er
t an
te x
Ġes a
Ñģ Ð»Ð¸
ĠC o
ĠI s
Ġk Ã¶n
Ġinter f
ill s
ario us
Ġincluy en
Ġm or
is m
Ð° Ñħ
Ġus er
ĠEs tas
olu ciÃ³n
a pe
Ġs pe
Ġo portun
Ġes cal
Ġh ttps
Ð° ÑĪ
am ples
Ġpar tir
to gra
Ġim age
Ġapro xim
. -
å ¸
Ġs ource
ta ciÃ³n
le t
Ġv arious
ac es
Ã± ar
ĠH ay
da ta
ll as
Ġhay a
Ġbu en
Ġt ab
un o
Ġes o
Ġv eces
ou ble
Ġre ce
am es
ab ilidad
ist en
io us
Ġbe fore
Ġop ciÃ³n
Ġneces ario
Ġter min
Ġfe el
Ġtrabaj ar
Ġid i
âĸĪ âĸĪ
p t
Ġc um
Ġl uego
Ġm ens
Ð» Ñİ
Ġfor mas
ut as
Ġ1 3
Ð¸Ð ±
ĠÐ² Ñģ
for ma
ĠðŁ ĳ
Ġcar r
Ġ20 2
Ġobje tivo
ĠCu ando
ĠdifÃŃ cil
a i
b ra
è §
Ġc le
Ġsu g
ÐµÐ ¿
Ġcomp os
Ġbl an
Ġpode mos
E R
y le
Ġ &
Ġs ch
Ã³ l
Ġh ar
Ġh ora
ra w
Ġcon n
Ðº Ð¾
ĠÂ ·
Ð¸ÑĤ Ðµ
Ġdeb en
ech a
Ġmis ma
Ġse ver
ant as
ĠB l
ier on
ĠG e
Ġne ur
Ġop ciones
Ð½Ñĭ Ð¼
Ġfe at
Ġprim era
æ ķ
Ġs tra
te ll
Ð½ Ð¾Ð²
Ġse Ã±
Ġg as
ab or
iz a
ĠD is
tu al
Ġqu al
Ġhab ÃŃa
Ġrela ciÃ³n
wor k
Ġobs erv
Ġcamb io
i tion
Ġt ipos
Ġpue da
Ġ2 5
uc k
Ġhe alth
Ġtra ta
Ġpol lo
Ġsta te
Ġdist ancia
Ġenerg y
Ð¾Ð· Ð´
Ġexperien ce
Ġenv iron
ĠmatemÃ¡ ticas
L os
u an
Ġa fec
Ġd entro
Ġp on
Ã¡ tico
Ð½ Ð¸
Ġg an
ÑĢ Ð¾Ñģ
Ġser ver
and a
Ð°Ð½ Ð¸Ñı
ĠTh ere
Ð¾Ð± Ñĭ
Ġdist in
Ġconcep tos
ĠÑģÐ² Ð¾
Ġ ich
Ġa ument
Ġs ci
Ġf rame
Ġn ada
Ġre lev
il y
ĠS ta
ut ar
Ġac er
Ġwith out
Ġar r
Ġar t
ĠO n
Ġco un
Ġamb iente
Ġdoc ument
Ġencuent ra
Ġfollow ing
Ġalm ac
odr ÃŃas
b y
ç »
Ġc ult
Ġl ife
Ġn on
ÑĢ Ð°Ð½
Ã© tica
cion ales
Ġres olver
Ð¾Ð¼ Ñĥ
ï¼ ļ
Ġvari as
red ientes
Ġperm iti
Ġke ep
Ġing lÃ©s
Ġbec ause
Ġsw itch
ĠpÃ¡g ina
' )
i antes
ð Ŀ
ĠÐ ¢
Ġb iblio
Ð° Ñİ
Ġse par
Ġim pres
Ġres ources
Ġr ight
ĠF ran
Ġch all
fic as
ä¸ į
Ġra z
tur as
Ġweb s
Ġsenti do
ĠAlgun os
Ġcomen zar
h n
Ġa gr
ar r
Ġo u
Ġn icht
Ð½ Ð¸Ðº
if y
Ġutiliz an
Ġpla ta
Ġsigu ientes
Ġgus to
Ġproyec to
Ġimag en
Ġpap el
1 6
C on
M e
b en
l ight
è ¦
Ġf aci
ra ciÃ³n
us ti
ĠE m
ĠL inux
Ġ1 4
Ġest Ã¡s
Ġsin d
Ġrela cion
Ġten go
ale za
Ġfut uro
Ġmedi ante
f era
Ġc ase
le g
Ġv ac
Ġme an
Ġcomm and
Ġcur rent
ĠpaÃŃs es
d r
u j
Ġt emp
Ġs a
Ġf er
Ġes s
Ġal ta
Ġal can
Ã± as
ie ve
ĠR ed
Ġdeb es
Ġsystem s
Ġmag n
Ġcambi ar
Ġorigin al
P uedes
S ure
v i
y a
es ta
Ġa ud
ic ally
ing le
Ġg lo
ĠS al
iz ar
ĠÐ¸ Ð¼
ver n
ĠG P
Ġev al
Ð¸Ð¼ ÐµÑĢ
Ġmen or
Ġdesarroll ar
Ġalgor ith
å ¯
Ġ ?
Ġd id
ci do
Ġla bor
ĠA p
Ñĭ Ð¹
Ġj uegos
ĠÑģ Ð¿
ĠĠĠĠĠĠĠĠ Ġ
Ġhe cho
Ġmejor es
Ġhum ano
Ġlle gar
pla in
Ġpropor cionar
è¦ ģ
h a
v as
ĠÐ ľ
Ġv an
Ġto tal
ou d
il lo
Ġ1 6
Ġim ages
Ġform at
Ġtrans form
Ġaplica ciÃ³n
Ġalg Ãºn
Ġredu ce
Ġaseg ur
C an
S S
d ay
Ġa ch
Ġs os
Ġl ec
os s
ter a
um ento
ĠĠĠĠĠĠĠĠ ĠĠ
ĠW indows
Ġcre aciÃ³n
ĠO r
Ġver d
Ġvari ables
Ġprov id
Ġserv id
Ø§ ÙĦ
Ġcompr ensiÃ³n
Ġgal ax
Ġcuer po
C Ã³mo
H ay
I I
k a
Ġd ia
in ts
Ġf oc
im in
Ġg reat
tr ic
Ġsu re
ĠI r
Ġcons ul
ici al
ten ciÃ³n
Ġinter pre
Ð°Ð½ ÑĤ
Ġop in
Ġst and
Ġesto y
Ġques tions
Ġpreci s
Ġdevelop ment
Ġt ÃŃ
Ġt ama
Ġc iencia
Ġs truc
Ġo x
Ñģ Ð»
ac er
ĠT r
ari as
ador a
Ġval ues
Ġmas a
Ġfo od
ä½ ł
Ġph ys
Ġampl ia
Ġpropi edad
Ġempe zar
Ġimpac to
T P
Ð ļ
å ¥
Ġa us
Ġm ir
Ġv ar
ier a
Ġap p
Ġfun cion
Ġcol umn
ĠÑĤ ÑĢ
fici ent
Ġer ror
Ġins truc
Ġdepend iendo
Ġef fec
Ġrepres enta
Ġcla ve
r bol
Ġp ur
Ġun til
Ð° Ñĩ
us o
Ġof re
tr y
ĠC ar
ers e
Ġbet ter
Ġexist en
Ġstar t
Ġfu ente
Ġesti lo
ĠÐ¼Ð¾Ð³ ÑĥÑĤ
Ġsever al
k es
o le
on al
Ġg Ã©n
iz aciÃ³n
Ġest Ã©n
ĠG u
Ġfun ciones
Ġrec ord
Ġ5 0
Ġproduc to
Ġau to
Ġsup port
ĠÐºÐ¾ÑĤÐ¾ÑĢ ÑĭÐµ
Ġbiblio te
c tions
ï ¸
Ġp ic
an os
Ġm os
Ġm ic
un e
Ġf on
Ġto da
ig e
ter o
ir d
ĠR es
Ġyour self
fic ult
Ġgr up
Ġav ail
ÐµÐ³ Ð¾
way s
h tml
y g
Ġ >
Ġp uer
Ġm Ã³
Ġre mo
Ġdes puÃ©s
ga in
ÑĪ Ðµ
ĠÃ ¼
Ñī ÐµÑģÑĤÐ²
Ġdirec ciÃ³n
Ġimp act
Ġparti cip
ï¸ ı
E T
m end
n os
å ĩ
Ġt ax
Ġl ess
Ġm ade
Ġy o
Ġw er
ĠS ome
um e
la ciÃ³n
Ġam igos
Ġad van
Ġver dad
Ġgr Ã¡
Ġlib ros
Ġmov imiento
Ġhuman os
Ġindivid u
Ð°ÑĨ Ð¸Ð¸
Ġalmac en
i od
u to
Ġa mo
Ġf Ã¼r
Ġcon tain
ĠC l
Ñĥ Ð¼
ĠW or
Ġdif ficult
cul ar
Ġrequ i
Ã¨ n
Ð¸Ñģ Ð»
Ġnatur aleza
pla y
Ġtech nolog
Ġtrad i
Ġprog res
H ow
é Ĺ
Ġs art
ti me
ad er
Ġb ody
Ġw ord
us h
ig en
qu est
Ġqu ien
Ġare a
Ġdis tribu
Ġpl ace
ĠO ne
gen ier
ĠÐ· Ð°
Ġten ga
Ġdisposi tivos
Ġverd uras
h or
s on
Ġc el
Ġp ython
an za
ti o
Ġse x
res pon
Ġex iste
Ġcu anto
Ġte am
Ġcons id
Ġcar ne
Ġprogra mas
Ġfuer za
Ġsolu ciÃ³n
Ġsart Ã©n
A r
Q L
a hr
m on
è Ģ
é Ģ
Ġde te
Ġw ie
Ġre pe
ĠC an
ien e
Ġpre dic
Ġund er
Ġexpl icar
Ġcomm un
Ġste ps
Ġmez cla
Ġenviron ment
H ere
o ve
ar th
Ġan o
Ġse an
Ġth ough
Ġis s
Ġdes af
ÐµÐ ¶
Ġ= >
Ð¾Ð» Ð½
Ð¾Ð³ ÑĢ
Ð· Ñĭ
Ġconoci miento
ĠÃ¡ rbol
Ġinvesti gaciÃ³n
Ġever y
Ġespa cio
Ġeval u
1 5
b an
d an
k ed
n g
Ġa Ã±
re ad
Ġo ur
Ġen se
ro z
Ġin tro
Ġv uel
Ġg uerra
Ġal terna
Ð» ÑĮ
ĠM ed
Ġcomp u
Ġqu ÃŃm
Ġar qu
Ġch ang
Ġesta ba
Ġresp ec
Ġgener ar
Ġpas o
Ġwor ks
Ġder ech
Ġsup uesto
Ġconst ante
Ġaj us
âĢį ðŁ
Ġbaj o
ĠpelÃŃcul a
Ġgrup o
c ome
e f
å ¼
Ġt el
et hing
Ġ- >
ĠM an
Ġlo cal
Ð² ÐµÑĤ
Ġpo int
Ġwe ight
Ġhab lar
Ġnuev as
Ġmater iales
Ġfo und
Ã¡l isis
ĠnÃºm eros
Ġfactor s
Ġsenti r
Ġactiv idades
Ġjug adores
Ġdecis iones
1 7
L as
T e
ã Ĥ
Ġ ur
on om
il ibr
ĠT er
Ñĥ Ð¶
por te
ĠÐ½ Ð°Ð¿
Ð² Ð»Ñı
Ġpre cio
Ġk il
Ġhab l
Ġcor re
Ġlib re
Ġcomun es
uest as
Ġfamil ia
Ġredu cir
Ġtech ni
Ġcell s
Ġappro ach
Ġnuest ro
åı¯ ä»¥
ĠpartÃŃcul as
s s
Â °
Ù ħ
Ù Ĩ
å Ĩ
æ ³
Ġn p
Ġn or
it z
im es
Ġg iv
Ġcom ien
Ġcom ida
Ġcom Ãºn
ĠI m
ĠM on
Ġac cess
Ġar te
ĠÑĢ Ð°Ñģ
Ġneces s
Ġneces itas
Ġsoci ales
Ġreal idad
Ġhard ware
Ġacor des
l s
Ġf ur
ÃŃ r
Ã¡ r
Ġre ac
Ġcom porta
ut or
Ð¸Ð ³
Ġj a
Ġhab er
ĠâĢ ĵ
Ġprim ero
ĠbÃ¡s icos
Ġdom in
Ġalgor it
Ġconstruc ciÃ³n
ĠkÃ¶n nen
Ġtama Ã±o
9 9
O S
Ġ %
Ġd ich
Ġc are
al ada
il s
Ġal iment
tr ing
Ġon line
Ġcre ating
ĠÐ¾ Ð¿
gen es
Ġsk ills
Ġconstr uir
å Ľ
Ġd ue
Ġp ie
Ġf ran
Ġcon cent
Ġre p
Ġal red
ĠB ar
Ġr om
Ġcl ic
Ġver y
Ġav anz
Ġproduc tos
Ġtom ate
Ġsuper fici
Ð½Ð° Ñı
Ġdese as
ww w
Ġpoten ti
Ġans wer
Ġservid or
" );
b s
h ol
k i
m es
Ġa gain
Ġc ier
Ġp ant
Ġs ay
ci os
Ġen f
Ġes cu
ro w
Ġn ing
Ġof rec
ĠS he
ĠC ons
Ġar ray
Ð³ Ð¾
Ġcomun idad
Ġinst all
Ø§ Ø
Ġvideo j
Ġhuev os
Ġcaf Ã©
( );
y e
Ġd ouble
Ġp ag
Ġp Ãºbl
ci miento
ti que
te g
Ġf ree
Ġre ad
Ġth ings
ĠT ur
ĠD o
ĠG ran
Ġdis cr
ĠU se
igh ts
Ġcal led
Ġvari ar
olu tion
Ġcent r
Ġpub l
ĠÐ±Ñĭ ÑĤÑĮ
Ġprodu ce
Ġdig ital
Ġsom ething
Ġavail able
i ado
m ine
p ython
t Ã³
å ·
Ġl iv
or r
an k
an ces
Ġm el
Ġcon duc
ab e
em on
ĠB o
Ġso y
Ġgra tu
Ġter r
ĠAm er
Ġcalcul ar
Ġjug ador
Ġmer cado
Ġmach ine
m ing
Ġt able
Ġp s
Ġl ic
in ess
ÑĤ Ð¾Ð±Ñĭ
at ura
Ġse c
cul o
Ġpo ints
ita ciÃ³n
uer da
Ġev id
Ð¾Ð»ÑĮ ÐºÐ¾
omb res
Ġwr ite
A n
z an
á »
Ġa cid
Ġlo op
gu ien
ĠÐ¼ Ð½
ä¸ ª
iel o
Ġentr ada
Ġgus tar
Ġaz ul
Ġlogr ar
i us
j ects
Ġs yn
un ca
Ġin fin
Ġn utr
Ġno w
ĠW ord
cu encia
enti al
Ð¾ÑĢ Ð¼
Ġmin d
Ġprov ides
Ġefec tos
Ġpeque Ã±o
âĢį â
ĠtÃ©cn icas
Ġfundament al
Ġwer den
or g
Ġen ti
it an
Ġcon tex
at her
Ġal ways
em ber
Ñĥ ÐµÑĤ
Ġ- -
ĠD ata
Ġper iod
Ġser ie
ĠG ra
til l
Ġu b
Ġrec on
Ġamb os
Ġequ ilibr
Ġmar ket
Ġpodr ÃŃas
Ġho y
ati s
Ġcambi os
Ġgro w
Ġens ure
Ġjun tos
Ġarg ument
Ġconjun to
ĠÃ¼ ber
P odrÃŃas
s c
t res
Ġt re
ci endo
Ġen fr
Ġh im
ĠA gre
ĠP la
iv al
ĠM in
Ġor g
ĠÐ² Ð°Ð¼
ĠÑģ Ð°Ð¼
Ġqu ick
Ġle vel
Ġem ple
ll os
ĠðŁ §
Ġsin o
Ġtem as
Ġpodr ÃŃan
Ġsolu ciones
Ġdispon ibles
Ġsignific ant
åľ ¨
Ġpata tas
Ġano ther
1 4
S e
Ġa ire
te l
Ġan terior
Ð½ ÑĥÑİ
Ġal guien
ur y
lo t
tiv ely
th ers
Ġcu adr
Ġj e
Ġj ugar
ap p
tor es
Ġmed ia
ÐµÐ» Ð¾Ð²
Ġsh ow
Ġfin an
Ġcap ital
ĠÐ³ Ð¾Ð´
Ġref iere
Ġefec to
Ġpalab ra
ĠprÃ¡c tica
Ġimpro ve
ĠtÃ©rmin os
Ġmuest ra
2 00
= =
d is
Ġt a
if f
ĠD ur
ĠÑģ Ð¾Ð·Ð´
Ġman ag
aliz ed
Ã¨ re
Ġdur ing
Ġrecom mend
Ġau ch
äº º
Ð°Ð± Ð¾ÑĤ
Ġtyp es
Ġfaci l
Ġalred edor
b ier
g s
m it
Ġa Ãºn
Ġd rag
in ter
Ġf ield
Ġv en
Ġv ent
ol es
el o
ut s
Ġex plain
Ġcomp render
Ġme as
gu a
Ġdis c
Ġpo b
duc ciÃ³n
uer zo
Ð»Ð¸ Ñĩ
Ġrespon se
Ġcontinu aciÃ³n
ĠRec uerda
ä¾ ĭ
Ġidi oma
Ġaument ar
yg ame
Ġl uch
ĠÐ ł
Ġf abr
Ġn ues
ed o
el lo
ab ility
ie f
ation al
Ġtr as
ĠÐ± ÑĥÐ´
ifica ciÃ³n
Ġcer tain
Ġques tion
Ġimple ment
Ġpatr ones
Ġacces o
Ġpattern s
Y es
b ase
e k
i um
Ġd og
un k
is ti
Ġh ag
id en
ÃŃ os
Ġel la
Ð½ Ñı
ĠC or
ÑģÑĤ ÑĢ
ĠH ar
tu res
Ġte le
ĠJ uan
Ġsol ici
Ġinter net
Ð½Ñĭ Ð¼Ð¸
fic ar
gen o
esti Ã³n
Ġconf lic
Ġche ck
Ġcont ent
P ress
o od
s et
ç Ń
Ġa tenciÃ³n
Ġf amos
ta x
Ġb es
Ġex amples
Ġest rate
ĠB y
Ġqu er
ĠÑĩ ÑĤÐ¾Ð±Ñĭ
Ġide al
Ġfil oso
Ġposi ciÃ³n
Ġdise Ã±
Ġrespon der
Ġunderstand ing
Ġley es
Ġecu aciÃ³n
Ġconn ec
z u
å ¾
er es
Ġs iendo
Ġde ta
ue la
im ens
Ġg l
ur al
ch es
Ð» Ð¾
et es
Ġdes ta
til la
Ġfr utas
Ġpers pec
ĠEn g
Ġperson ajes
Ã¡n ica
ĠÑ Ī
Ġej erci
ĠÑĥ Ñĩ
Ġter ms
Ð¸Ð· Ð½
Ġpun tos
Ġllam ado
Ġeleg ir
Ġfeat ures
' ll
Ġ Ø§ÙĦ
Ġc ity
Ġl Ã³g
in os
te ad
ÑĢ Ð°Ð·
il i
ĠP o
Ġ1 7
tiv amente
pl ic
Ġser Ã¡
Ðº ÑĤ
ĠÐ½ Ð¾
ĠW hen
Ġab r
ĠIn tern
Ð¾Ð» ÐµÐµ
Ġz ona
Ġmo tiv
ÑĨ Ð¸Ð¸
ĠÐ± Ð¾Ð»ÑĮ
yth ing
ĠRe g
Ð°ÑĤ ÐµÐ»ÑĮ
ĠÑı Ð²Ð»Ñı
Ġtecnolog ÃŃas
Ġprofes ional
Ġapplica tions
Ġpack age
ĠÐŃ ÑĤÐ¾
Ġsuperfici e
d it
æ Ģ
Ġde t
Ġh id
Ġv oc
Ã¡ genes
im os
Ġse ts
de x
ir m
ĠC ada
if t
Ġex tre
Ġim Ã¡genes
ĠÐ¸ Ñħ
ĠG r
oc k
Ġpre v
Ġpl us
ÐµÑĢ Ð¶
ne y
ÐµÐ» Ñı
Ġobj ects
Ð¸Ð¼ Ð¸
Ġmodel os
Ġconsider ar
Ġelement o
ĠÐµ Ð³Ð¾
Ġsp ace
Ġmem oria
Ġallow s
Ġofre ce
Ġarqu itec
Ġestrate g
i ko
Ð ¡
he d
he ad
Ġf res
Ġen tonces
Ã³ lo
Ġan Ã¡lisis
im a
ĠS p
que da
our s
Ġgra cias
Ġinte ll
Ã¨ s
pr int
las k
Ġprof und
Ġmain tain
Ġinc or
ĠÐºÐ¾Ð¼ Ð¿
j ec
w ar
Ġ iz
Ġs ize
Ġm ad
ĠÐ ķ
ro p
Ġn unca
Ġto o
Ġto t
Ġto ols
am ento
lo c
um enta
la f
Ġres e
ĠÐ² Ð¾Ð·
ĠF r
og ra
Ð¼ Ñĭ
ĠÐ¾ Ð´
Ġpl at
ĠO p
Ð°Ð½ Ð¸Ðµ
Ġsig ue
Ġmed ic
ĠÑĩ ÐµÐ»Ð¾Ð²
ĠK e
Ġinte gra
Ġind ica
Ġhist or
Ġresult ados
Ġlengu ajes
Ġmus ical
Ġdem Ã¡s
Ð¾Ð¿ ÑĢÐ¾Ñģ
Ġdin ero
ĠEuro pe
cra ft
Ġconoc er
Ġstra teg
Ġwebs ite
Ġfoc us
Ġgustar ÃŃa
1 3
i ra
é ľ
er en
Ġs ie
or n
Ġe g
ta tion
Ġcon clus
Ã¡ les
im o
Ġse qu
ul es
Ġth ose
Ñĥ Ð½
ma te
ica tion
ĠD ie
Ġas tr
Ġme ta
ĠG er
oc ar
Ġap oy
Ġfun ctions
Ġop tions
min ist
Ġlib ro
Ġout put
ros o
Ġincluy e
Ġsegu ro
ĠÑı Ð·Ñĭ
ĠAd dition
Ġlet ra
Ð¸ÑĢ Ð¾Ð²Ð°Ð½
Ġfamil iar
Ġtemperat ure
Ġminut es
Ġcir cu
Ġperform ance
Ġeng ine
L o
t he
t Ã©
å ¹
æ Ŀ
é Ŀ
Ġs till
Ġf lex
Ġin no
at ure
ÑĢ ÐµÐ¼
Ġre cu
Ã© l
Ġsu c
ĠI h
Ġfor ce
tiv es
Ġme ans
Ðº Ð¾Ð²
ÐµÐ½ ÑĮ
est ing
Ġdi es
ĠÐ¿ÑĢ Ð¾Ð³ÑĢ
Ġmod er
Ġmi x
Ġaut or
Ġneed s
Ġstor y
ĠpelÃŃcul as
åŃ ¦
æĹ ¶
ĠÐ»Ñİ Ð´
Ġswitch es
ĠWord Press
6 0
A l
A s
P T
b i
b ody
p ers
è ¡
Ġt ell
Ġp lease
in cl
Ġm ust
ci pl
ti g
Ġo thers
ec er
Ġal s
ĠS an
Ð» Ð°ÑģÑĤ
ĠL et
ĠM ic
ĠÐ¿ Ð¾Ð½
ÑģÑĤ ÑĮ
ĠÐ¸ Ð³ÑĢ
uc le
Ġar roz
tor no
Ġdis co
Ġab ierto
ĠðŁ ¤
ita t
aliz aciÃ³n
ub e
Ġmat ter
Ġpres s
Ġpres ent
Ãºs queda
Ð½Ð° Ñĩ
Ġint ens
Ġvector es
ĠAlgun as
ĠÃ¡re a
6 4
] )
c Ã³
d ar
Ð Ŀ
å į
æ Ĥ
Ġt imes
ĠÐ ĳ
Ñĭ ÑĤ
Ġim pos
ĠH a
Ġac t
se g
Ġap ar
ĠW ith
Ġvari ety
Ġ< <
Ġpas ar
Ġpol i
ÐµÑģ Ñģ
Ġamb ient
Ġrequ iere
Ġnum bers
Ġobje tivos
Ġnatur ales
Ġestud iantes
Ġhor as
Ð°ÐµÑĤ ÑģÑı
ustr al
Ġmulti ple
Ġconse gu
ĠÐ¸Ð½ ÑĤÐµÑĢ
Ġstand ard
âĢįâ Ļ
Ġintell ig
ĠAddition ally
: :
n y
z os
Ä ±
é ¢
Ġd or
Ġde c
Ġe fici
Ġo cur
Ġal to
ab an
Ð» ÐµÐ½
em a
ĠL uego
ĠD in
Ġas ist
ud a
ion i
Ġad j
Ġfun ciona
Ġmod ern
ess age
Ġcos t
Ġconoci da
Ġserv icios
Ġpregun tar
ĠÃºn ica
Ġlibr ary
bas ed
Ġresul ts
ĠJo hn
Ð°Ð½ÑĤ Ð¾Ð²
éľ Ģ
2 5
p ass
u en
Ġa ta
Ġun s
le ment
Ġin genier
Ġn aci
Ġv as
Ġpar tes
ĠS h
Ġsu ficiente
Ð¸Ð ¿
ĠH az
Ġac cu
ap s
and as
Ġmin im
Ġpreci os
Ġreci b
Ġnuest ra
Ġllev ar
Ġalcan zar
Ġpant alla
8 0
A I
o id
Ġt utor
Ġs qu
Ġs ym
Ġde d
Ġm ec
Ġe tique
al ity
Ġb os
ou p
Ġha z
cl ar
ĠIn g
cul os
Ġhab ilidad
Ð¾ÑĢ Ð¸ÑĤ
Ġgo als
Ġrela tions
Ġmen cion
Ġbas a
Ġlle g
Ġein en
Ġnuev a
Ġdar k
Ġaf ter
Ġcondi ciones
Ġcondi tions
ĠWe b
Ġcum pl
Ð»Ñİ Ñĩ
d om
å Į
at ro
ÑĢ Ð°
ÑĢ Ð¸
ul os
ul as
um ber
iv os
Ġus ando
Ãº lti
Ġser es
Ġch ange
Ġgr ad
Ð°ÑĤÑĮ ÑģÑı
Ġst yle
Ġproble m
Ġconoci mientos
eno v
Ġprob able
Ġpass word
Ġloc ation
ĠÐ¾Ñģ Ð½Ð¾Ð²
Ġestre llas
Ġrese arch
1 1
f l
Ð Ł
æ Ń
Ġm Ã¡g
om as
Ġb an
Ġh y
Ġn om
Ġg ente
Ð» Ð³
ĠC O
Ñĥ Ñģ
ĠD oc
Ġest ad
pl ace
Ġr end
Ġpr on
Ð² Ð°Ð½ÑĤÐ¾Ð²
for t
Ġincl uso
Ġgo vern
Ġreg ul
Ã¤ n
Ġer r
ust om
Ġcam ino
Ġtom a
Ġconsider ed
Ġcomun icaciÃ³n
Ġho pe
ĠEx cel
Ġpopular es
Ġcompr ar
Cu Ã¡l
Ġol iva
Ġconsid era
Ġfiloso fÃŃa
, "
[ '
p ing
Ġd ura
on y
Ġm Ãºlti
Ġe dad
ad ir
Ġn ie
Ġw ol
il es
ĠS ystem
ĠÐ² Ð¾Ð¿ÑĢÐ¾Ñģ
ĠH er
all s
und ial
pos e
Ġsim ul
Ġdifer ente
uy e
bo ts
Ġing redientes
Ġestud iar
Ġexpres s
ĠFin almente
Ġsegun do
ĠcuÃ¡n tica
Ġcarr era
Ġchall en
T o
g i
h ttps
m is
t ado
ä ¿
Ġs Ã©
Ġs atis
an e
Ðµ Ñħ
Ġb Ãºsqueda
Ġn et
ent ina
Ġcon tr
Ġcon cre
Ġw id
Ã© ro
ĠS te
ĠP e
et ro
um b
Ñı Ð·
ĠÐ¿ Ð¾Ñģ
Ġle er
Ġwith in
Ġej ec
Ġsal sa
ä¸ Ń
Ġgra ph
Ġinv ers
Ġhacer lo
Ġmi em
Ġhist ory
Ð¾ÑģÑĤ Ð¾
** :
Ã§ Ã£o
Ġstor e
Ġmant en
Ġsitu aciÃ³n
Ġvia je
Ġment al
Ġprovid ed
Ġbibliote ca
Ġcompu ter
Ġtechni ques
ĠÐ¿ÑĢÐ¾Ð³ÑĢ Ð°Ð¼
. ,
O R
Ġd ice
Ġd ivid
ar es
Ġf echa
Ġen fo
ĠS im
Ñĥ Ð¿
Ġdes tin
ĠB ut
Ġac co
ĠU til
Ġresp uestas
Ġval id
ech an
Ġmen udo
Ð¸ÑĤÑĮ ÑģÑı
Ġposi tion
ĠÐ¼Ð¾Ð¶ Ð½Ð¾
ĠÑĤÐ°Ðº Ð¶Ðµ
Ġentren amiento
ĠÃ¡re as
Ġabs or
Ġgrav ita
Ġcomporta miento
S ÃŃ
r ite
Ø ±
Ù Ī
er aciÃ³n
al a
il t
ĠS on
ĠL at
ient s
Ġr ies
Ġcomp e
Ġfr ien
Ġman o
Ġcal iente
ys is
Ġincl uir
Ġmo do
Ġsh ort
Ġbas ic
Ġdirec tor
Ġnuev os
ĠAr g
ĠCom o
Ġoper ating
Ġlugar es
led ge
Ġefec tiva
Ġed if
Ġste p
Ġapl icar
Ġresist encia
Ġsos ten
roso ft
] .
a Ã±
n s
n ot
ä ¼
é ĩ
Ġs ent
Ġs tre
Ġen ter
Ġcon tribu
ol or
ib t
ant um
Ġr enov
Ġne xt
ĠU s
Ð¼ Ð¾Ð¶
Ġab ove
ĠÐ¿ÑĢ Ð°Ð²
ĠV al
Ġcar d
Ġcor respon
Ġhum ana
Ġrecom iendo
Ġlim it
Ġmayor ÃŃa
Ġdetermin ar
ĠNe w
Ġanal y
Ġtend r
Ġspe ed
å¥ ½
Ġderech os
l in
en en
Ġs il
Ġe ficiente
Ġh og
Ġcon ec
Ġw ar
Ġg ases
Ġre des
Ã© f
Ġof fer
ĠS et
ĠP rac
ĠT rans
ma in
ĠD ar
Ġim plica
Ġus es
Ġme et
ĠÐ² Ð°ÑĪ
Ġpr ue
Ġcons ist
ip s
Ġhe ch
Ġ4 0
Ġrela ciones
az Ã³n
ph a
Ġli k
Ġperm iten
Ġrequ est
Ġvis ual
get her
Ġcontro lar
ÃŃn as
itor io
Ġstr ong
ĠespecÃŃ ficas
Ġtyp ically
Ð¸ÑģÑĤ ÐµÐ¼
Ġdescrib e
Ġaproxim adamente
æķ °
Ġpotenti al
incl ude
æĤ ¨
Ġrelations hip
4 0
R E
h al
y ing
z ione
en cy
Ġd f
Ġde mas
Ġm aj
Ġf as
ta g
Ġh om
id d
Ġto gether
Ñı ÑĤÑĮ
Ġdel s
ĠM y
Ġlo w
Ġpor t
Ġcu ales
ĠÑģ Ðº
aj a
Ġk on
Ġej ecu
Ġat m
ÐµÑģ ÑĮ
Ġcr ÃŃ
ex ample
Ġpes o
ĠCre a
Ġmill ones
ĠWor ld
Ġaliment os
c ord
g ro
m ina
r ia
s ec
y o
Ð Ĵ
æ Ĭ
Ġ ;
Ġc Ã¡l
Ġs uel
on os
he ma
at ch
Ġse in
to p
ĠC r
ĠC ena
ĠG it
Ġob ra
av es
ä¸ º
ÑģÑĤÐ² ÐµÐ½
Ġca use
ĠlÃŃ qu
äº Ĩ
Ġprote ÃŃnas
Ġplay ers
Ġconse jos
eng th
Ġrece ta
Ġatm Ã³s
3 0
p ara
Â ł
å ¦
es ts
Ġa do
Ġl ink
ci s
ic l
Ġb uy
Ġg re
Ġre m
Ġor ient
ier es
Ġbe b
Ġso und
ĠR em
Ġmu erte
ĠIn te
Ġsi ÄĻ
ill as
Ġpe p
lec t
ĠÐ° Ð½
Ð¸Ð· Ð¼
uest os
ĠbÃ¡s ica
wor ks
Ġtrain ing
ĠEuro pa
ĠgÃ©n ero
ĠHar ry
Ġinno v
ĠatmÃ³s fera
A S
d ate
n el
v ol
Ø ¨
æ ī
Ġ ite
Ġc ielo
Ġp ygame
Ġs ide
Ġde j
ci ente
ad em
Ġf ic
ÑĢ Ð°Ð²
Ġsu mm
iv er
Ãº rate
Ġad i
ĠO f
me tros
ĠÐ± Ð¾Ð»ÐµÐµ
Ġwor king
ĠÐ· Ð°Ð´
Ġform ula
Ġins tr
Ġst d
Ġprof ess
bo ok
Ġoper a
Ġgro up
Ð°Ð¹ ÑĤÐµ
Ġencuent ran
Ġmom ent
ĠPr im
ĠelectrÃ³n ica
____ ____
Ġeduc aciÃ³n
Ġamo unt
P U
f ace
m od
p as
Ġf en
Ġf arm
Ġb ass
Ġn ad
Ġv ie
im ienta
Ã© e
il ities
ĠP ue
