{"<s>":0,"<pad>":1,"</s>":2,"<unk>":3,"<mask>":4,"!":5,"\"":6,"#":7,"$":8,"%":9,"&":10,"'":11,"(":12,")":13,"*":14,"+":15,",":16,"-":17,".":18,"/":19,"0":20,"1":21,"2":22,"3":23,"4":24,"5":25,"6":26,"7":27,"8":28,"9":29,":":30,";":31,"<":32,"=":33,">":34,"?":35,"@":36,"A":37,"B":38,"C":39,"D":40,"E":41,"F":42,"G":43,"H":44,"I":45,"J":46,"K":47,"L":48,"M":49,"N":50,"O":51,"P":52,"Q":53,"R":54,"S":55,"T":56,"U":57,"V":58,"W":59,"X":60,"Y":61,"Z":62,"[":63,"\\":64,"]":65,"^":66,"_":67,"`":68,"a":69,"b":70,"c":71,"d":72,"e":73,"f":74,"g":75,"h":76,"i":77,"j":78,"k":79,"l":80,"m":81,"n":82,"o":83,"p":84,"q":85,"r":86,"s":87,"t":88,"u":89,"v":90,"w":91,"x":92,"y":93,"z":94,"{":95,"|":96,"}":97,"~":98,"¡":99,"¢":100,"£":101,"¤":102,"¥":103,"¦":104,"§":105,"¨":106,"©":107,"ª":108,"«":109,"¬":110,"®":111,"¯":112,"°":113,"±":114,"²":115,"³":116,"´":117,"µ":118,"¶":119,"·":120,"¸":121,"¹":122,"º":123,"»":124,"¼":125,"½":126,"¾":127,"¿":128,"À":129,"Á":130,"Â":131,"Ã":132,"Ä":133,"Å":134,"Æ":135,"Ç":136,"È":137,"É":138,"Ê":139,"Ë":140,"Ì":141,"Í":142,"Î":143,"Ï":144,"Ð":145,"Ñ":146,"Ò":147,"Ó":148,"Ô":149,"Õ":150,"Ö":151,"×":152,"Ø":153,"Ù":154,"Ú":155,"Û":156,"Ü":157,"Ý":158,"Þ":159,"ß":160,"à":161,"á":162,"â":163,"ã":164,"ä":165,"å":166,"æ":167,"ç":168,"è":169,"é":170,"ê":171,"ë":172,"ì":173,"í":174,"î":175,"ï":176,"ð":177,"ñ":178,"ò":179,"ó":180,"ô":181,"õ":182,"ö":183,"÷":184,"ø":185,"ù":186,"ú":187,"û":188,"ü":189,"ý":190,"þ":191,"ÿ":192,"Ā":193,"ā":194,"Ă":195,"ă":196,"Ą":197,"ą":198,"Ć":199,"ć":200,"Ĉ":201,"ĉ":202,"Ċ":203,"ċ":204,"Č":205,"č":206,"Ď":207,"ď":208,"Đ":209,"đ":210,"Ē":211,"ē":212,"Ĕ":213,"ĕ":214,"Ė":215,"ė":216,"Ę":217,"ę":218,"Ě":219,"ě":220,"Ĝ":221,"ĝ":222,"Ğ":223,"ğ":224,"Ġ":225,"ġ":226,"Ģ":227,"ģ":228,"Ĥ":229,"ĥ":230,"Ħ":231,"ħ":232,"Ĩ":233,"ĩ":234,"Ī":235,"ī":236,"Ĭ":237,"ĭ":238,"Į":239,"į":240,"İ":241,"ı":242,"Ĳ":243,"ĳ":244,"Ĵ":245,"ĵ":246,"Ķ":247,"ķ":248,"ĸ":249,"Ĺ":250,"ĺ":251,"Ļ":252,"ļ":253,"Ľ":254,"ľ":255,"Ŀ":256,"ŀ":257,"Ł":258,"ł":259,"Ń":260,"en":261,"es":262,"Ġa":263,"Ġd":264,"er":265,"Ġt":266,"Ġc":267,"Ġp":268,"Ġs":269,"ar":270,"on":271,"Ġl":272,"in":273,"Ġde":274,"or":275,"os":276,"as":277,"an":278,"Ġm":279,"re":280,"ĠĠ":281,"un":282,"Ġe":283,"ci":284,"ti":285,"al":286,"ue":287,"ĠÐ":288,"te":289,"Ġy":290,"ad":291,"he":292,"is":293,"Ð¾":294,"Ġf":295,"Ġla":296,"Ġo":297,"Ġun":298,"Ġen":299,"om":300,"ic":301,"Ðµ":302,"Ġq":303,"Ã³":304,"ta":305,"Ġb":306,"Ġes":307,"ro":308,"le":309,"Ġin":310,"Ġthe":311,"ÑĤ":312,"Ġh":313,"Ġque":314,"Ð°":315,"Ġn":316,"it":317,"Ð¸":318,"ra":319,"Ġan":320,"ent":321,"id":322,"Ġcon":323,"at":324,"Ġw":325,"ÃŃ":326,"us":327,"Ġel":328,"Ġv":329,"Ð¾Ð":330,"Ã³n":331,"Ñģ":332,"Ã¡":333,"ing":334,"im":335,"ol":336,"Ġto":337,"ĠĠĠĠ":338,"Ð½":339,"čĊ":340,"ou":341,"Ġse":342,"Ġg":343,"ÑĢ":344,"Ġre":345,"am":346,"Ġand":347,"ed":348,"ec":349,"Ġcom":350,"Ã©":351,"il":352,"Ġpar":353,"ĠE":354,"el":355,"ciÃ³n":356,"ĠA":357,"Ġof":358,"res":359,"ig":360,"ac":361,"Ġuna":362,"Ġal":363,"Ġpro":364,"ĠS":365,"ul":366,"tion":367,"to":368,"do":369,"tr":370,"ur":371,"de":372,"ter":373,"Ġlos":374,"ch":375,"Ġth":376,"ir":377,"ab":378,"ĠP":379,"Ġpara":380,"ĠT":381,"Ð»":382,"ĠC":383,"Ġsu":384,"ers":385,"em":386,"et":387,"ĠI":388,"ien":389,"Ñĥ":390,"Ġyou":391,"lo":392,"ĠL":393,"Ġfor":394,"um":395,"iz":396,"la":397,"ut":398,"if":399,"Ð°Ð":400,"Ġ1":401,"ma":402,"Ġex":403,"Ñı":404,"Ġis":405,"Ġ-":406,"od":407,"ica":408,"iv":409,"qu":410,"ado":411,"Ġno":412,"Ġ\"":413,"tic":414,"Ġdel":415,"ib":416,"cion":417,"Ã¡s":418,"ia":419,"Ñĭ":420,"ÃŃa":421,"ce":422,"ÑĮ":423,"Ġ(":424,"Ġlas":425,"tiv":426,"ĠM":427,"ĠD":428,"ay":429,"Ġdes":430,"Ġas":431,"Ġim":432,"Ġpue":433,"ÐµÐ":434,"end":435,"ente":436,"ant":437,"ud":438,"Ġus":439,"ist":440,"Ġlo":441,"Ġest":442,"pl":443,"th":444,"io":445,"por":446,"per":447,"ient":448,"Ġpor":449,"Ġres":450,"Ð¸Ð":451,"Ã±":452,"ie":453,"ĠÐ¿":454,"ag":455,"Ñĩ":456,"ada":457,"idad":458,"Ġcan":459,"Ġper":460,"Ġor":461,"ĠB":462,"ier":463,"ÑģÑĤ":464,"Ġr":465,"Ãº":466,"Ġ2":467,"Ġbe":468,"ĠEs":469,"Ġthat":470,"Ġso":471,"Ġcomp":472,"Ġme":473,"Ġon":474,"Ġcu":475,"ve":476,"ĠÐ¸":477,"ĠÐ²":478,"Ġser":479,"Ġj":480,"ĠF":481,"ĠH":482,"Ġac":483,"Ġpr":484,"uc":485,"cia":486,"ĠmÃ¡s":487,"ĠÑģ":488,"tu":489,"Ġcomo":490,"go":491,"ĠR":492,"pe":493,"ate":494,"ly":495,"ith":496,"ver":497,"Ġte":498,"ow":499,"ĠG":500,"oc":501,"--":502,"Ġcons":503,"Ġit":504,"ip":505,"Ðº":506,"ke":507,"ĠÐ½":508,"ion":509,"Ġqu":510,"Ð²":511,"Ġha":512,"til":513,"ts":514,"aciÃ³n":515,"ĠĠĠĠĠĠĠĠ":516,"Ġ=":517,"ran":518,"for":519,"ici":520,"Ġwh":521,"ales":522,"gu":523,"ÐµÐ½":524,"ap":525,"ener":526,"port":527,"Ġle":528,"aj":529,"Ġpre":530,"Ġwith":531,"ciones":532,"ante":533,"se":534,"Ġu":535,"Ġar":536,"ces":537,"ere":538,"ich":539,"Ġap":540,"Ð¾Ð²":541,"ĠW":542,"Ġare":543,"emp":544,"Ġcre":545,"mo":546,"est":547,"ando":548,"gun":549,"Ġ3":550,"Ġmu":551,"ĠN":552,"tor":553,"ari":554,"and":555,"Ġdis":556,"que":557,"Ġne":558,"Ñħ":559,"Ġob":560,"og":561,"ens":562,"era":563,"Ġyour":564,"cl":565,"Ġk":566,"op":567,"Ġam":568,"ĠU":569,"Ð¼":570,"ld":571,"bre":572,"Ġhe":573,"ĠÐ¾":574,"ĠÐº":575,"den":576,"Ġson":577,"ite":578,"tos":579,"ine":580,"ment":581,"st":582,"ation":583,"ÐµÑĤ":584,"les":585,"cr":586,"tar":587,"00":588,"Ġab":589,"Ġfr":590,"Ġpers":591,"ĠEn":592,"Ġdif":593,"Ġpl":594,"Ġimport":595,"Ð´":596,"amb":597,"Ġman":598,"ide":599,"cu":600,"ten":601,"Ġtra":602,"igh":603,"Ġad":604,"ĠLa":605,"âĢ":606,"ug":607,"Ñİ":608,"Ġch":609,"Ġfun":610,"ÑĤÐ¾":611,"Ġpuede":612,"ĠIn":613,"ĠJ":614,"da":615,"ge":616,"Ġcl":617,"Ã©s":618,"gra":619,"ble":620,"Ã©n":621,"Ġperson":622,"tre":623,"Ġsi":624,"ĠThe":625,"Ġsol":626,"ÐµÑĢ":627,"Ġinter":628,"iÃ³n":629,"ÑĤÑĮ":630,"ĠO":631,"ido":632,"ðŁ":633,"ĠÂ":634,"ĠÐ¼":635,"ple":636,"ill":637,"Ð¾Ð»":638,"ados":639,"Ġem":640,"Ð°Ð½":641,"are":642,"enta":643,"za":644,"Ġdi":645,"ero":646,"``":647,"ador":648,"Ġrec":649,"ida":650,"tra":651,"des":652,"Ġtu":653,"'s":654,"Ġco":655,"ll":656,"Ġi":657,"Ġpos":658,"ome":659,"Ġz":660,"me":661,"ould":662,"ĠÐ´":663,"iento":664,"tions":665,"Ġutil":666,"mente":667,"cul":668,"Ð½Ð¾":669,"ĠðŁ":670,"Ġ4":671,"Ġcal":672,"Ġsig":673,"able":674,"Ð¿":675,"ĠÐ¿ÑĢ":676,"ĠV":677,"Ġcar":678,"Ġma":679,"ame":680,"dad":681,"Ð¾Ð¼":682,"Ġtr":683,"Ġ5":684,"con":685,"Ġpo":686,"encia":687,"Ġwe":688,"fer":689,"Ġda":690,"Ã¡n":691,"Ġtien":692,"ico":693,"eces":694,"pa":695,"all":696,"ambi":697,"tro":698,"ase":699,"ĠÑ":700,"Ġutiliz":701,"\",":702,"ĠEl":703,"ass":704,"Ġhab":705,"Ġop":706,"ĠTh":707,"Ġej":708,"ber":709,"ita":710,"aliz":711,"av":712,"Ġ*":713,"ues":714,"Ð½Ñĭ":715,"Ġele":716,"tes":717,"ne":718,"duc":719,"Ġcol":720,"ĠÑĤ":721,"Ġmod":722,"Ġcor":723,"Ġhac":724,"Ġesta":725,"Ð¾Ð³":726,"Ġsus":727,"ted":728,"ys":729,"ina":730,"Ġby":731,"ity":732,"our":733,"Ġhas":734,"Ġmed":735,"ach":736,"ÐµÐ»":737,"mas":738,"Ġincl":739,"ï¼":740,"uer":741,"Ġver":742,"co":743,"Ġresp":744,"ĠUn":745,"ight":746,"Ġro":747,"Ġmo":748,"Ġhave":749,"iste":750,"ies":751,"----":752,"ga":753,"Ġat":754,"Ġpod":755,"Ð°Ðº":756,"tas":757,"ĠÑĢ":758,"rec":759,"ore":760,"ÃŃs":761,"ard":762,"ther":763,"Ġobj":764,"tica":765,"ÑĪ":766,"und":767,"fic":768,"Ð·":769,"fici":770,"pres":771,"Ġvari":772,"Ġsobre":773,"Ġsin":774,"Ġprogra":775,"Ð¸Ñı":776,"Ġund":777,"entes":778,"ure":779,"ÑĨ":780,"fec":781,"ile":782,"Ġmay":783,"ara":784,"Ð¾Ð´":785,"Ġfrom":786,"Ġsh":787,"so":788,"Ġay":789,"Ġmuch":790,"jor":791,"age":792,"Ð³":793,"ub":794,"Ġev":795,"Ġneces":796,"pos":797,"oci":798,"Ġpa":799,"ĠcÃ³":800,"ot":801,"ks":802,"Ġayud":803,"rend":804,"gen":805,"Ġmejor":806,"Ġentre":807,"ell":808,"Ð¸ÑĤ":809,"Ġalgun":810,"Ġpueden":811,"enti":812,"ĠY":813,"peci":814,"Ġgener":815,"ord":816,"maciÃ³n":817,"Ġprin":818,"ras":819,"Ġdeb":820,"Ġinfor":821,"Ġsal":822,"Ġpe":823,"adas":824,"ca":825,"ä¸":826,"Ġval":827,"ĠÐ±":828,"Ã±o":829,"ult":830,"ular":831,"min":832,"ĠÑĩ":833,"Ġdo":834,"yth":835,"Ġti":836,"ĠAl":837,"ambiÃ©n":838,"ÃŃas":839,"Ãºn":840,"Ġhay":841,"olog":842,"Ð¾Ð¹":843,"plica":844,"ista":845,"ĠÐ½Ð°":846,"Ð¾ÑĢ":847,"ible":848,"Ð±":849,"mos":850,"Ġfin":851,"idades":852,"ech":853,"ess":854,"Ġ<":855,"Ġsim":856,"Ġpas":857,"di":858,"ĠK":859,"gr":860,"no":861,"Ð°Ð»":862,"Ġgo":863,"Ġdifer":864,"ally":865,"tros":866,"ft":867,"ario":868,"ak":869,"amente":870,"ÑģÑı":871,"truc":872,"ÐµÐ¼":873,"Ġthis":874,"ios":875,"Ġ#":876,"Ð¸Ð¼":877,"Ġ{":878,"out":879,"Ġmat":880,"Ġra":881,"ores":882,"Ġ6":883,"tem":884,"Ġwor":885,"ps":886,"tive":887,"uy":888,"ĠÐ·":889,"Ġif":890,"enci":891,"emplo":892,"dos":893,"Ð¾Ð¶":894,"ura":895,"iente":896,"Ġnot":897,"Ġpres":898,"iti":899,"ĠÃ":900,"Ġpero":901,"Ġcas":902,"ãĢ":903,"du":904,"Ġgran":905,"uego":906,"ĠĠĠĠĠ":907,"Ġgr":908,"ï¼Į":909,"Ġreg":910,"Ġuse":911,"ana":912,"low":913,"Ġgra":914,"Ġve":915,"quÃŃ":916,"Ġcap":917,"Ġinv":918,"Ð¸Ðµ":919,"Ġcomple":920,"antes":921,"atos":922,"ĠÂ¿":923,"pec":924,"Ġmis":925,"Ġhacer":926,"ython":927,"Ġform":928,"Ġpol":929,"Ð¾Ð½":930,"ual":931,"Ġinte":932,"Ġimportante":933,"Ġrela":934,"Ã±os":935,"Ġmin":936,"uev":937,"ĠÑĥ":938,"up":939,"Ġter":940,"one":941,"ĠâĢ":942,"ÐµÑģ":943,"Ġwas":944,"pend":945,"Ġdata":946,"Ġmi":947,"Ġejemplo":948,"cip":949,"ack":950,"Ġexper":951,"Ġtem":952,"aje":953,"ĠPor":954,"rans":955,"Ð°ÑĤÑĮ":956,"Ð°Ð¼":957,"ial":958,"Ñī":959,"ano":960,"Ġmen":961,"Ġher":962,").":963,"Ġmore":964,"empo":965,"az":966,");":967,"ck":968,"Ġten":969,"Ġll":970,"Ġsiste":971,"Ġbas":972,"jo":973,"```":974,"red":975,"ice":976,"Ġ}":977,"Ġtener":978,"ÐµÐ´":979,"ento":980,"Ã¤":981,"ena":982,"ĠThis":983,"Ġcada":984,"ph":985,"arro":986,"Ġlib":987,"tivo":988,"Ġcos":989,"Ġproces":990,"der":991,"Ġder":992,"cep":993,"tura":994,"na":995,"Ġamb":996,"Ġav":997,"ok":998,"ĠRe":999,"fin":1000,"tur":1001,"ime":1002,"Ġtheir":1003,"iendo":1004,"Ġer":1005,"ons":1006,"Ġhel":1007,"ence":1008,"Ð»Ð¸":1009,"Ġplan":1010,"car":1011,"ust":1012,"Ã¼":1013,"Ġind":1014,"Ġmodel":1015,"Ġprov":1016,"we":1017,"Ġdeci":1018,"Ġles":1019,"ÑģÑĤÐ²":1020,"igo":1021,"ivers":1022,"Ð°ÑĤ":1023,"vel":1024,"aci":1025,"erg":1026,"par":1027,"çļ":1028,"Ð¾Ð±":1029,"çļĦ":1030,"Ġsign":1031,"Ġsome":1032,"Ġforma":1033,"Ġwhich":1034,"icos":1035,"ance":1036,"ider":1037,"Ġtiempo":1038,"Ġ```":1039,"Ġli":1040,"lar":1041,"ting":1042,"Ġ[":1043,"Ġbu":1044,"ĠAn":1045,"Ġperm":1046,"Ġhum":1047,"pro":1048,"Ġrequ":1049,"ace":1050,"Ġfe":1051,"ese":1052,"Ġequ":1053,"Ġaprend":1054,"crip":1055,"Ð»Ñı":1056,"Ġcam":1057,"ĠtambiÃ©n":1058,"lec":1059,"Â¿":1060,"Ã¨":1061,"icas":1062,"Ð°Ð²":1063,"Ġcr":1064,"Ġvida":1065,"ĠSe":1066,"Ġ'":1067,"ĠÑį":1068,"ive":1069,"ja":1070,"Ġtrans":1071,"Ġeste":1072,"Ġayudar":1073,"Ġdie":1074,"Ġmar":1075,"ĠDe":1076,"ect":1077,"ĠSi":1078,"form":1079,"ong":1080,"Ġins":1081,"ĠÃ©":1082,"Ġother":1083,"itar":1084,"xt":1085,"Ġca":1086,"ticas":1087,"Ġsuch":1088,"ign":1089,"tin":1090,"ito":1091,"Ġwill":1092,"edad":1093,"fr":1094,"Ã©r":1095,"Ġpuedes":1096,"Ġdatos":1097,"Ġ+":1098,"baj":1099,"Ġprim":1100,"uz":1101,"Ġaut":1102,"tiva":1103,"Ġ8":1104,"ĠestÃ¡":1105,"br":1106,"Ð°Ð·":1107,"zar":1108,"trar":1109,"ix":1110,"ystem":1111,"Ġet":1112,"Ġya":1113,"Ġbut":1114,"Ġdesarro":1115,"ene":1116,"Ġmuy":1117,"Ġdon":1118,"Ġpodr":1119,"Ġdos":1120,"Ð¾ÑĤ":1121,"tir":1122,"pr":1123,"bar":1124,"las":1125,"Ð¾Ñģ":1126,"Ġ10":1127,"ones":1128,"das":1129,"__":1130,"gar":1131,"Ġst":1132,"icar":1133,"Ġhist":1134,"Ġtus":1135,"Ġ0":1136,"Ð¸Ð½":1137,"Ġall":1138,"crib":1139,"ko":1140,"tain":1141,"Ġproduc":1142,"Ġdur":1143,"Ġmas":1144,"po":1145,"Ġproble":1146,"dem":1147,"ction":1148,"ÑĢÑĥ":1149,"Ġsoci":1150,"Ð¶":1151,"pi":1152,"Ġnum":1153,"ĠCon":1154,"Ġ7":1155,"ifica":1156,"ÐµÐº":1157,"Ġ20":1158,"atur":1159,"Ð¾Ð»ÑĮ":1160,"//":1161,"esti":1162,"Ġlle":1163,"ical":1164,"Ġup":1165,"undo":1166,"Ġtrabaj":1167,"ale":1168,"Ġsta":1169,"Ġni":1170,"Ġvis":1171,"Ġotros":1172,"La":1173,"Ġpla":1174,"Ġlen":1175,"ven":1176,"now":1177,"ĠIt":1178,"),":1179,"Ġconoci":1180,"los":1181,"Ġweb":1182,"Ãł":1183,"ary":1184,"almente":1185,"Ġtiene":1186,"Ġhelp":1187,"Ġbo":1188,"Ð¸Ð²":1189,"Ġtom":1190,"Ð¾Ð³Ð¾":1191,"che":1192,"tico":1193,"lic":1194,"Ġserv":1195,"Ġrecom":1196,"ans":1197,"ipo":1198,"Ġneed":1199,"ora":1200,"Ġpregun":1201,"ĠĠĠ":1202,"Ġwould":1203,"ÐµÐ¹":1204,"Ġthey":1205,"Ġpat":1206,"als":1207,"ample":1208,"ior":1209,"Ġide":1210,"Ġconsider":1211,"Ġalso":1212,"ĠAs":1213,"gan":1214,"uel":1215,"ĠlÃŃ":1216,"tivos":1217,"ctr":1218,"Ġau":1219,"ost":1220,"ĠPython":1221,"ĠÐ°":1222,"ãĢĤ":1223,"ilidad":1224,"acter":1225,"hat":1226,"int":1227,"cre":1228,"arn":1229,"anto":1230,"com":1231,"ware":1232,"ĠLos":1233,"ÑĤÐ¾ÑĢ":1234,"bol":1235,"Ġbr":1236,"Qu":1237,"Ġid":1238,"ientes":1239,"Ġmanera":1240,"ire":1241,"lig":1242,"Ġdist":1243,"Ġnew":1244,"Ġhasta":1245,"Ð¸Ð·":1246,"ugar":1247,"Ġlike":1248,"Ġprincip":1249,"nolog":1250,"ino":1251,"Ġmundo":1252,"Ġcrear":1253,"Ġprof":1254,"Ġenerg":1255,"ax":1256,"pon":1257,"ĠÐ½Ðµ":1258,"Ġfil":1259,"ĠNo":1260,"digo":1261,"king":1262,"pen":1263,"Ġ19":1264,"Ġpersonas":1265,"rac":1266,"Ġany":1267,"iones":1268,"Ġdirec":1269,"ument":1270,"Ð¸Ðº":1271,"ĠÐ³":1272,"Ġein":1273,"ĠÃ¡":1274,"Ġusing":1275,"Ġagu":1276,"cio":1277,"iel":1278,"Ġexpl":1279,"va":1280,"oria":1281,"Ð¸Ð¸":1282,"tras":1283,"Ġcual":1284,"El":1285,"ang":1286,"Ġused":1287,"Ñĸ":1288,"use":1289,"--------":1290,"Ġsistema":1291,"()":1292,"Ġlar":1293,"adores":1294,"her":1295,"\".":1296,"ze":1297,"Ãºs":1298,"ba":1299,"ms":1300,"uro":1301,"bo":1302,"ÃŃcul":1303,"ĠÐ¾Ð±":1304,"Ġnuev":1305,"Ġcomm":1306,"ĠcÃ³mo":1307,"ton":1308,"Ġbet":1309,"Ð¸Ñģ":1310,"Ġspeci":1311,"Ð¸Ñĩ":1312,"Ġconf":1313,"Ġdiffer":1314,"alizar":1315,"Ġcould":1316,"Ġcode":1317,"Ġelement":1318,"ĠcÃ³digo":1319,"ry":1320,"Ġknow":1321,"Ġabout":1322,"Ġdiferentes":1323,"Ġke":1324,"Ġfac":1325,"Ġx":1326,"eros":1327,"Ġresult":1328,"miento":1329,"paÃ±":1330,"wn":1331,"Ġtec":1332,"eno":1333,"Ġcomun":1334,"Ġthere":1335,"Ġits":1336,"ĠinformaciÃ³n":1337,"aciones":1338,"Ġsystem":1339,"amos":1340,"ating":1341,"ung":1342,"Ð¹":1343,"Ġtime":1344,"ĠAr":1345,"Ð°Ñģ":1346,"hr":1347,"Ã¶":1348,"ĠÐ»":1349,"Ġzu":1350,"ques":1351,"ÐµÐ½Ð¸Ñı":1352,"Ġsub":1353,"ty":1354,"Ð¸ÑĤÑĮ":1355,"Ġout":1356,"Ġho":1357,"ros":1358,"Ġcuenta":1359,"urs":1360,"Ġsuper":1361,"ĠDes":1362,"ĠYou":1363,"ãģ":1364,"ram":1365,"erv":1366,"Ð¾Ð·":1367,"Ð°ÑĢ":1368,"Ġgu":1369,"Ġincluy":1370,"ias":1371,"Ġover":1372,"Ġlengu":1373,"Ġespeci":1374,"Ġobje":1375,"Ġsolo":1376,"ato":1377,"ola":1378,"Ġseg":1379,"ĠPro":1380,"Ġone":1381,"demÃ¡s":1382,"endo":1383,"iar":1384,"Ð¸Ñħ":1385,"tern":1386,"Ġencon":1387,"Ġ9":1388,"Ð¾ÑģÑĤ":1389,"amiento":1390,"get":1391,"ä»":1392,"ĠCom":1393,"Ġcer":1394,"Ġbus":1395,"Ġinto":1396,"cript":1397,"ff":1398,"jas":1399,"cional":1400,"uest":1401,"Ġdar":1402,"Ġlim":1403,"Ġactu":1404,"ombre":1405,"ail":1406,"ful":1407,"iÃ³":1408,"ents":1409,"Ġsegu":1410,"Ġalgunos":1411,"..":1412,"be":1413,"put":1414,"ecu":1415,"Ð¸Ð¹":1416,"lu":1417,"ÑĦ":1418,"Ġ$":1419,"Ġposi":1420,"Ġreal":1421,"Ãºm":1422,"orm":1423,"Ġhow":1424,"ĠZ":1425,"ables":1426,"][":1427,"cal":1428,"äº":1429,"its":1430,"ĠÐ²Ñĭ":1431,"Ġuno":1432,"Ġcontro":1433,"'t":1434,"Ġaplica":1435,"ĠĠĠĠĠĠ":1436,"Ġprote":1437,"ĠÐ¾ÑĤ":1438,"Ġexperien":1439,"pre":1440,"Ġmayor":1441,"Ġesto":1442,"Ð½Ð¾ÑģÑĤ":1443,"Ġmater":1444,"Ġmake":1445,"åı":1446,"Ġoper":1447,"):":1448,"Ġdepend":1449,"ĠSin":1450,"xim":1451,"ater":1452,"Ġche":1453,"Ġing":1454,"Ġpop":1455,"Ġbien":1456,"ĠfunciÃ³n":1457,"wo":1458,"Ġty":1459,"Ġmus":1460,"cias":1461,"Ġthem":1462,"ced":1463,"Ġinst":1464,"Ġref":1465,"ĠEsto":1466,"Ġcuando":1467,"Ġsigu":1468,"Ġvez":1469,"ender":1470,"olu":1471,"tt":1472,"encias":1473,"Ġfo":1474,"ĠHow":1475,"ws":1476,"Ġvol":1477,"ector":1478,"Ġembar":1479,"Ġci":1480,"ick":1481,"(\"":1482,"Ġentr":1483,"ientras":1484,"arios":1485,"ati":1486,"Ã¡l":1487,"ÑĥÑĩ":1488,"Ġway":1489,"fica":1490,"Ġmet":1491,"Ġpersona":1492,"imiento":1493,"Ġtodo":1494,"Ġalg":1495,"Ġcontin":1496,"Ġgus":1497,"ize":1498,"ugh":1499,"Ġlugar":1500,"Ġmy":1501,"Ġnatur":1502,"ep":1503,"mÃ¡":1504,"Ġluz":1505,"Ġvo":1506,"ĠEx":1507,"æĪ":1508,"ÃŃn":1509,"ÑİÑĤ":1510,"ÃŃan":1511,"cil":1512,"Ġprogram":1513,"ĠÃº":1514,"Ġcur":1515,"Ġinf":1516,"itu":1517,"Ġfunction":1518,"ĠÑı":1519,"Ġcent":1520,"Ġsab":1521,"arse":1522,"ex":1523,"vers":1524,"Ġhis":1525,"trib":1526,"Ġtodos":1527,"Ġexample":1528,"ĠÑĩÑĤÐ¾":1529,"Ġpun":1530,"ĠnÃºm":1531,"Ġembargo":1532,"Ġquier":1533,"20":1534,"ho":1535,"je":1536,"led":1537,"ivid":1538,"ientos":1539,"Ġdise":1540,"19":1541,"Ġestos":1542,"ĠÂ¡":1543,"ake":1544,"ind":1545,"Ġdem":1546,"Ġusar":1547,"tidad":1548,"ade":1549,"ĠIf":1550,"ik":1551,"Ġpel":1552,"art":1553,"Ġfol":1554,"Ġsea":1555,"ĠquÃ©":1556,"Ġfue":1557,"Ð½Ð°":1558,"ĠLe":1559,"Ġexist":1560,"Ġarti":1561,"ves":1562,"Ġsup":1563,"Ġusu":1564,"Ġget":1565,"ÅĤ":1566,"ann":1567,"ages":1568,"llo":1569,"ĠaÃ±os":1570,"ort":1571,"ĠAm":1572,"ä½":1573,"Ġlista":1574,"cer":1575,"ian":1576,"Ġge":1577,"ations":1578,"turn":1579,"Ġconst":1580,"Ġcalcul":1581,"Ġtienes":1582,"Ġint":1583,"ĠAdemÃ¡s":1584,"ger":1585,"Ġvers":1586,"ast":1587,"quier":1588,"Ġimp":1589,"ĠÐ¸Ð·":1590,"ated":1591,"Ġalgo":1592,"ob":1593,"pla":1594,"ely":1595,"act":1596,"gre":1597,"ose":1598,"Ġef":1599,"ĠÐµ":1600,"Ġelectr":1601,"ĠprogramaciÃ³n":1602,"Ð¾ÑĤÐ¾ÑĢ":1603,"Ð½ÑĭÑħ":1604,"Es":1605,"Ð¾Ðº":1606,"ild":1607,"bl":1608,"Ġanim":1609,"Ð°Ð´":1610,"Ġagua":1611,"Ġestud":1612,"gos":1613,"uch":1614,"ancia":1615,"Ġbl":1616,"uesta":1617,"ftware":1618,"ivo":1619,"ilar":1620,"Ġlearn":1621,"000":1622,"Ġimportant":1623,"ween":1624,"En":1625,"gh":1626,"Ġmientras":1627,"Ġpropor":1628,"tim":1629,"tal":1630,"ange":1631,"ciÃ³":1632,"Ġdesde":1633,"Ġllam":1634,"Ġaprender":1635,"ever":1636,"Ġist":1637,"Ġtecnolog":1638,"can":1639,"amil":1640,"ins":1641,"ĠasÃŃ":1642,"Ġwhen":1643,"ĠÐ¼Ð¾Ð¶":1644,"Ġsignifica":1645,"ÐµÑģÐº":1646,"Ġbetween":1647,"Ġsp":1648,"Ã³g":1649,"Ġherram":1650,"Ġfactor":1651,"Ġefec":1652,"itor":1653,"Ġencontrar":1654,"Ġstar":1655,"ava":1656,"Ġwork":1657,"**":1658,"Ġsenti":1659,"Ġmag":1660,"Ġfuer":1661,"Ġthese":1662,"ied":1663,"Ġespec":1664,"idos":1665,"Ð½ÑĭÐµ":1666,"ude":1667,"zo":1668,"itos":1669,"ament":1670,"Ġecon":1671,"Ġhan":1672,"iment":1673,"Ø§":1674,"Ġeach":1675,"ĠmÃ©":1676,"Ġna":1677,"Ġques":1678,"',":1679,"çĶ":1680,"ĠMar":1681,"Ġce":1682,"Ġarch":1683,"Ġgeneral":1684,"Ġtwo":1685,"Ð°Ð¶":1686,"Ġwhat":1687,"Ġdeter":1688,"Ġhigh":1689,"ings":1690,"Ġreturn":1691,"emos":1692,"Ġtanto":1693,"Ġdefin":1694,"Ġnos":1695,"ough":1696,"ilidades":1697,"ĠestÃ¡n":1698,"ÐµÐ»ÑĮ":1699,"Ġconcep":1700,"Ġtienen":1701,"Ġmuchos":1702,"Ġtemper":1703,"ĠaquÃŃ":1704,"ona":1705,"Ġmon":1706,"Ġva":1707,"udad":1708,"ĠlÃŃne":1709,"The":1710,"cel":1711,"sa":1712,"Ġotro":1713,"Ġhor":1714,"ĠEste":1715,"Ġcolor":1716,"ĠPara":1717,"cionar":1718,"Ġdurante":1719,"Ġdifferent":1720,"Ġpopular":1721,"Ġaf":1722,"ienta":1723,"ĠEsta":1724,"ĠÑģÑĤ":1725,"Ġshould":1726,"Ã²":1727,"ĠÐĴ":1728,"Ġcompr":1729,"ĠĠĠĠĠĠĠĠĠĠĠĠ":1730,"Ġsolu":1731,"Ġdesarroll":1732,"cur":1733,"Ġtipo":1734,"Ġactiv":1735,"ĠAd":1736,"Ġprop":1737,"Ġstr":1738,"Ġlist":1739,"ticos":1740,"Ġpal":1741,"Ġmem":1742,"In":1743,"ges":1744,"ficial":1745,"Ð½Ð¾Ð¹":1746,"Ġlenguaje":1747,"eg":1748,"yec":1749,"ĠdÃŃa":1750,"Ġcambi":1751,"velop":1752,"Ġpoc":1753,"Ġmate":1754,"Ġunivers":1755,"Ġcomb":1756,"Ġparte":1757,"ĠÃ©s":1758,"ish":1759,"Ġgro":1760,"Ġsoftware":1761,"Ġlet":1762,"Ã³m":1763,"Ġcantidad":1764,"Ġmejorar":1765,"=\"":1766,"Ġdoc":1767,"uir":1768,"Ġdef":1769,"ÑģÐº":1770,"ples":1771,"âł":1772,"idas":1773,"ĠUna":1774,"ono":1775,"Ġpoder":1776,"ree":1777,"Ġpuedo":1778,"ator":1779,"ulti":1780,"Ġjuego":1781,"cuent":1782,"Ġcaracter":1783,"posi":1784,"Ġ|":1785,"Ġbec":1786,"ates":1787,"Ġtas":1788,"Ã©c":1789,"ĠLas":1790,"ĠFor":1791,"Ġprint":1792,"uta":1793,"Ġblo":1794,"rough":1795,"ula":1796,"ĠCh":1797,"Ġmov":1798,"Ġalgunas":1799,"Ġprocess":1800,"Ġdonde":1801,"ific":1802,"Ġjug":1803,"Ġutilizar":1804,"Ġinforma":1805,"Ð°ÐµÑĤ":1806,"ress":1807,"ĠÑģÐ²":1808,"ture":1809,"Ġmismo":1810,"Ġden":1811,"arch":1812,"lich":1813,"Ã§":1814,"Ġpes":1815,"Ġeta":1816,"Ġciudad":1817,"angu":1818,"tamente":1819,"Ġpreci":1820,"Ġtrav":1821,"Ġutiliza":1822,"hen":1823,"jos":1824,"Ġcreate":1825,"Ġpeque":1826,"lti":1827,"Ð¸ÑĢ":1828,"Ġcondi":1829,"ĠÐºÐ°Ðº":1830,"Ġhuman":1831,"Ġhistoria":1832,"Ġpub":1833,"ĠlÃŃnea":1834,"Ġsur":1835,"ise":1836,"Ã³r":1837,"tional":1838,"Ġthan":1839,"Ġ`":1840,"uedes":1841,"ĠbÃ¡s":1842,"ĠtravÃ©s":1843,"Ġil":1844,"ĠfÃŃs":1845,"elf":1846,"Ð°Ð¹":1847,"Ġorden":1848,"Ġwho":1849,"ĠÑĤÐ°Ðº":1850,"æľ":1851,"ics":1852,"uesto":1853,"Ġ//":1854,"Ġbase":1855,"Ġrepres":1856,"tand":1857,"Ð¾Ð¿":1858,"ĠAquÃŃ":1859,"ÄĻ":1860,"ern":1861,"Ġfamil":1862,"Ġproyec":1863,"Ġteor":1864,"ars":1865,"ines":1866,"ĠÐºÐ¾ÑĤÐ¾ÑĢ":1867,"Ġmany":1868,"âĸ":1869,"ierra":1870,"Ġcorrec":1871,"Ġtemperat":1872,"Ġstor":1873,"ĠÐ´Ð»Ñı":1874,"Ġfu":1875,"Ġencuent":1876,"ower":1877,"ÐµÐ½Ð¸Ðµ":1878,"Ġhace":1879,"Ã¡c":1880,"pero":1881,"Ġwhere":1882,"ĠHowever":1883,"ds":1884,"Ġdebe":1885,"ink":1886,"unt":1887,"cir":1888,"irst":1889,"Ġhand":1890,"ÑĭÐµ":1891,"ÙĦ":1892,"Ġfile":1893,"ustr":1894,"umen":1895,"Ġplay":1896,"wor":1897,"Ġmant":1898,"Ġed":1899,"Ġenv":1900,"Ġvide":1901,"Ġparti":1902,"Ġsc":1903,"oma":1904,"Ã¡g":1905,"Ġpi":1906,"ĠmÃºs":1907,"Ġcapaci":1908,"Ġcualquier":1909,"Ġste":1910,"Ġredu":1911,"ility":1912,"ÑĥÑĤ":1913,"ĠBe":1914,"una":1915,"Ġdese":1916,"ĠÑĢÐ°Ð·":1917,"tical":1918,"Ġtex":1919,"Ġmom":1920,"Ġuso":1921,"jar":1922,"ni":1923,"sist":1924,"Ġum":1925,"Ġtech":1926,"Ġvel":1927,"Ġvector":1928,"Ġcompar":1929,"ĠpaÃŃs":1930,"Ñĳ":1931,"ĠÐ±Ñĭ":1932,"ities":1933,"ĠespecÃŃ":1934,"Ġpalab":1935,"ux":1936,"ym":1937,"Ġcul":1938,"omo":1939,"rate":1940,"Ġwhile":1941,"âĢĻ":1942,"Ġcontrol":1943,"Ġlong":1944,"ices":1945,"Ġbar":1946,"Ð¾Ð²Ð°Ð½":1947,"Ġ**":1948,"Ġrespon":1949,"Ð°Ð»ÑĮ":1950,"å¤":1951,"Ġthen":1952,"Ġposs":1953,"ĠenergÃŃa":1954,"Ġdevelop":1955,"Ġdescu":1956,"Ġposible":1957,"Ġminut":1958,"Ġindivid":1959,"Ġâ":1960,"ivel":1961,"ÐµÐ²":1962,"Ġorig":1963,"++":1964,"Ġmil":1965,"ĠfÃ¡":1966,"Ġestruc":1967,"Ġselec":1968,"aba":1969,"cess":1970,"ures":1971,"Ġfut":1972,"Ġrespuesta":1973,"Ġgood":1974,"li":1975,"ĠX":1976,"Ġsitu":1977,"Ġent":1978,"ets":1979,"Ġsimple":1980,"laro":1981,"ĠnÃºmero":1982,"Ġsk":1983,"omb":1984,"cho":1985,"Ġthrough":1986,"ĠPar":1987,"empre":1988,"Ġmuchas":1989,"ÐµÑģÑĤÐ²":1990,"Ġset":1991,"Ġpart":1992,"Ġchar":1993,"Ġspecific":1994,"ĠmatemÃ¡":1995,"No":1996,"tener":1997,"ĠJava":1998,"åħ":1999,"ory":2000,"Ġwant":2001,"ÐµÐ³":2002,"iere":2003,"Ġaj":2004,"Ð°ÑĨ":2005,"ÑģÐ¿":2006,"Ġidenti":2007,"pu":2008,"Ġmol":2009,"Ġintegr":2010,"js":2011,"rame":2012,"ĠHere":2013,"ions":2014,"Ġpoco":2015,"Ġmain":2016,"ource":2017,"Ġorgan":2018,"ople":2019,"Ġinteres":2020,"vis":2021,"Ġph":2022,"ĠTambiÃ©n":2023,"erstand":2024,"ĠBr":2025,"ĠÑģÐ»":2026,"Claro":2027,"ases":2028,"ital":2029,"inar":2030,"itas":2031,"ÑĥÑİ":2032,"oy":2033,"val":2034,"Ġshe":2035,"Ð°Ñı":2036,"Ð°ÑģÑĤ":2037,"etos":2038,"Ġadd":2039,"Ġtrad":2040,"Ġprovide":2041,"Ġfollow":2042,".\"":2043,"af":2044,"tud":2045,"Ġotras":2046,"ters":2047,"â£":2048,"Ġmit":2049,"Ġens":2050,"Ġestar":2051,"Ġinclud":2052,"Ġvalor":2053,"col":2054,"Ð¸Ð»":2055,"Ġpartic":2056,"ibles":2057,"ursos":2058,"Ġveloci":2059,"://":2060,"Ġmost":2061,"Ġhabilidades":2062,"Ġdecis":2063,"py":2064,"yn":2065,"erci":2066,"Ġinde":2067,"ajes":2068,"Ġnumber":2069,"Ġpregunta":2070,"Ġsw":2071,"Ġmulti":2072,"ĠCre":2073,"Ġempres":2074,"Ġsimilar":2075,"æĺ":2076,"Ġmes":2077,"Ġampl":2078,"Ġsm":2079,"ĠSie":2080,"ĠGo":2081,"Ġclass":2082,"Ġescrib":2083,"Ġdecir":2084,"Ġpermite":2085,"Ð¸ÑĩÐµÑģÐº":2086,"10":2087,"Å¼":2088,"reat":2089,"illa":2090,"Ġcaso":2091,"ren":2092,"ĠÐ¶":2093,"Ġantes":2094,"Ġviv":2095,"Ð°Ð¿":2096,"Ġbeen":2097,"Ġsiempre":2098,"Ġdesarrollo":2099,"Ġrealizar":2100,"ĠTo":2101,"ipos":2102,"âłĢ":2103,"Ġdu":2104,"Ġcir":2105,"Ġmer":2106,"Ġwell":2107,"Ġ12":2108,"Ġunderstand":2109,"cas":2110,"åĪ":2111,"Ġ\\":2112,"Ġdiv":2113,"ĠAI":2114,"icios":2115,"Ġcoc":2116,"anz":2117,"Ġinc":2118,"Ġnivel":2119,"ece":2120,"è¯":2121,"Ð½Ð¾Ð³Ð¾":2122,"Ġreci":2123,"Ġestas":2124,"Ð¼Ð¸":2125,"ĠÑĦ":2126,"Ġsalud":2127,"\":":2128,"ror":2129,"round":2130,"ĠÐ¿ÑĢÐ¾":2131,"Ġera":2132,"Ġwr":2133,"wer":2134,"rag":2135,"Ġprodu":2136,"ciona":2137,"Ġdesign":2138,"Ġayudarte":2139,"ites":2140,"uras":2141,"ww":2142,"Ġale":2143,"Ġdom":2144,"Ġimag":2145,"Ġalgor":2146,"ata":2147,"Äħ":2148,"arte":2149,"unque":2150,"Ġcontra":2151,"ĠÐ¿Ð¾":2152,"Ġaplicaciones":2153,"Ġsel":2154,"ody":2155,"ional":2156,"Ġpeople":2157,"ä¸Ģ":2158,"Ġelementos":2159,"Ã±a":2160,"Ġlangu":2161,"tivas":2162,"Ġley":2163,"Ġintelig":2164,"tribu":2165,"man":2166,"Ġfind":2167,"Ġtare":2168,"ĠmÃ©to":2169,"table":2170,"ides":2171,"Ġconten":2172,"ĠSch":2173,"Ġobjetos":2174,"ama":2175,"ĠCol":2176,"Ð°Ð±":2177,"ĠMe":2178,"Ġrun":2179,"Ġrecomend":2180,"Ġkey":2181,"åĬ":2182,"Ġotra":2183,"ÐµÑĩ":2184,"ĠpolÃŃ":2185,"ĠteorÃŃa":2186,"Ġir":2187,"Ġresumen":2188,"ĠÑįÑĤÐ¾":2189,"ĠtecnologÃŃa":2190,"ĠmÃºsica":2191,"Ġpan":2192,"Ġrad":2193,"ĠAlgun":2194,"Ġinformation":2195,"Ġsido":2196,"ĠÐŁ":2197,"Ġexpres":2198,"Ġmedi":2199,"ãĢģ":2200,"Ġinvesti":2201,"ĠâĢ¢":2202,"Ġcaus":2203,"Ġcapacidad":2204,"ĠPer":2205,"ÐµÐ½ÑĤ":2206,"QuÃ©":2207,"ML":2208,"Ġfl":2209,"ÐµÑģÑĤ":2210,"Ġmucho":2211,"ĠpodrÃŃa":2212,"Ġproblemas":2213,"Ã³s":2214,"entar":2215,"oca":2216,"ÑĢÑĥÐ³":2217,"ua":2218,"vo":2219,"Ġ/":2220,"aria":2221,"ensiÃ³n":2222,"Ġsistemas":2223,"Ġidea":2224,"ttps":2225,"Ġdr":2226,"own":2227,"Ġdetermin":2228,"iten":2229,"iva":2230,"way":2231,"ä¹":2232,"eras":2233,"ĠÐĿ":2234,"Ġgame":2235,"ement":2236,"ments":2237,"Ġtrabajo":2238,"Ġauf":2239,"ĠÐ¼Ð¾Ð¶ÐµÑĤ":2240,"icht":2241,"ĠÃºn":2242,"ĠPr":2243,"Ġextra":2244,"ÐµÐ·":2245,"ants":2246,"ĠWe":2247,"Ġobject":2248,"Ġayuda":2249,"Ġworld":2250,"ects":2251,"Ġprob":2252,"fect":2253,"Ġtor":2254,"ĠsÃŃ":2255,"ĠHe":2256,"Ġartificial":2257,"Ġpass":2258,"Ġfirst":2259,"Ġetc":2260,"Ð¾Ð»ÑĮÐ·":2261,"ous":2262,"self":2263,"å®":2264,"Ġtur":2265,"Ġbel":2266,"âĢį":2267,"Ġsolar":2268,"Ġprofes":2269,"Ã©cn":2270,"PI":2271,"Ġ:":2272,"Ġtake":2273,"indo":2274,"cid":2275,"Ð¿ÑĢ":2276,"Ġtyp":2277,"sh":2278,"vent":2279,"Ġaz":2280,"oso":2281,"uegos":2282,"Ð¸ÑģÑĤ":2283,"ÑĥÐ´":2284,"ĠOpen":2285,"Ġtry":2286,"Ġopen":2287,"Ġmenos":2288,"åĲ":2289,"Ġeine":2290,"iter":2291,"Ġwere":2292,"Ġtodas":2293,"Ġonly":2294,"Ġsue":2295,"Ġemo":2296,"Ġhad":2297,"Ġconse":2298,"Ġapro":2299,"Ġlado":2300,"Ġperform":2301,"ÃŃsticas":2302,"Cu":2303,"nen":2304,"ĠØ":2305,"ert":2306,"terna":2307,"Ġconsum":2308,"Ġleg":2309,"Ġautom":2310,"ket":2311,"Ġpap":2312,"Ġpower":2313,"ray":2314,"icaciÃ³n":2315,"fore":2316,"âĸĪ":2317,"ĠfÃ¡cil":2318,"ject":2319,"Ġdass":2320,"Ġbaj":2321,"itch":2322,"izaje":2323,"Ġmedio":2324,"Ġbre":2325,"Ġallow":2326,"Ġjust":2327,"Ġcasa":2328,"Ã¼r":2329,"Ġsiguiente":2330,"au":2331,"cle":2332,"mm":2333,"ĠEspero":2334,"Ġmaterial":2335,"çĶ¨":2336,"hod":2337,"ĠtÃ©cn":2338,"anti":2339,"Ã¡m":2340,"Ġ11":2341,"Ġdescrib":2342,"âĢĿ":2343,"Ġutilizando":2344,"line":2345,"Ġdas":2346,"Ġday":2347,"Ġsens":2348,"Ġesti":2349,"uss":2350,"Ġrefer":2351,"Ġpersonal":2352,"ÙĬ":2353,"Ġnombre":2354,"Ġconj":2355,"Ġjun":2356,"Ġtext":2357,"sistant":2358,"Ġcomen":2359,"ĠCu":2360,"Ġrespons":2361,"Ġentren":2362,"cent":2363,"eta":2364,"Ġos":2365,"Ġcell":2366,"Ġprac":2367,"Ġescr":2368,"ĠTe":2369,"Ð½ÑĭÐ¹":2370,"Ġaprendizaje":2371,"))":2372,"Ġdig":2373,"Ġcla":2374,"ĠÐ¿Ð¾Ð´":2375,"ĠNe":2376,"ĠpelÃŃcul":2377,"Ġvideo":2378,"æĺ¯":2379,"ving":2380,"Ġmill":2381,"Ġappro":2382,"Ġinflu":2383,"fo":2384,"iales":2385,"ĠÐŀ":2386,"Ġbi":2387,"ĠespaÃ±":2388,"Ġvir":2389,"load":2390,"Ġprefer":2391,"Ġobs":2392,"Ġimportantes":2393,"Ġmodelo":2394,"ct":2395,"Â¡":2396,"Â»":2397,"arm":2398,"Ġvon":2399,"Ġgal":2400,"Ġred":2401,"Ġimple":2402,"key":2403,"Ġrecursos":2404,"Ġcontinu":2405,"è¿":2406,"Ġwater":2407,"ĠSol":2408,"ĠÐ¸Ð»Ð¸":2409,"ĠHT":2410,"portun":2411,"Ġdisposi":2412,"Ġobtener":2413,"Ġlibr":2414,"ner":2415,"any":2416,"alla":2417,"Ġexp":2418,"ĠFin":2419,"ÐºÐ¸":2420,"Ġadecu":2421,"æĪĳ":2422,"ĠÃºtil":2423,"Ġig":2424,"Ġnuest":2425,"ÃŃo":2426,"Ã¡p":2427,"Ġarg":2428,"Ġsegur":2429,"Ġorigin":2430,"Ġese":2431,"lease":2432,"Ġanal":2433,"Ġ15":2434,"Ġbuild":2435,"Ġtomar":2436,"Ġdin":2437,"Ġsor":2438,"ĠmÃ©s":2439,"Ġpropi":2440,"ĠfÃŃsica":2441,"fico":2442,"via":2443,"zen":2444,"ĠÑħ":2445,"Ġpens":2446,"ĠÐ¡":2447,"ulo":2448,"ĠTierra":2449,"ĠWhat":2450,"Ġcab":2451,"adr":2452,"Ġname":2453,"Ġvia":2454,"Ġsegun":2455,"ientas":2456,"Ġfund":2457,"Ġpoten":2458,"ÑĨÐ¸":2459,"van":2460,"Ġloc":2461,"ĠÐ´ÑĢÑĥÐ³":2462,"Ġpode":2463,"eng":2464,"ĠÐ¿Ð¾Ð»":2465,"entaciÃ³n":2466,"ä»¥":2467,"ĠelectrÃ³n":2468,"('":2469,"inas":2470,"Ġdeber":2471,"old":2472,"ols":2473,"Ġcrea":2474,"Ġsocial":2475,"Ġmethod":2476,"âłĢâłĢ":2477,"Ġ.":2478,"ÑĤÐµ":2479,"Ġ18":2480,"Ġcalidad":2481,"tm":2482,"erte":2483,"Ġtres":2484,"Ġol":2485,"umn":2486,"Ġnega":2487,"ĠÂ«":2488,"Ġproceso":2489,"Ġarchivo":2490,"ĠaÃ±o":2491,"Ġsee":2492,"ety":2493,"ogle":2494,"Ġestable":2495,"____":2496,"Ġincluding":2497,"\")":2498,"Ġback":2499,"ĠAPI":2500,"ĠPero":2501,"ibilidad":2502,"Ð¸Ð´":2503,"----------------":2504,"Ġresultado":2505,"Ġactual":2506,"Ġsmall":2507,"Hola":2508,"ave":2509,"Ġtar":2510,"Ġtal":2511,"ources":2512,"cial":2513,"ismo":2514,"Ġesc":2515,"lev":2516,"Ġhi":2517,"Ġhard":2518,"ath":2519,"ats":2520,"cha":2521,"ĠÐ¸ÑģÐ¿":2522,"Ġpasos":2523,"Ġmomento":2524,"Ġlanguage":2525,"cado":2526,"word":2527,"text":2528,"Ġesp":2529,"chen":2530,"ife":2531,"ply":2532,"Ġmez":2533,"ĠâĢĶ":2534,"Ġseguir":2535,"Ð½Ð¾ÑģÑĤÐ¸":2536,"Ġlearning":2537,"puÃ©s":2538,"],":2539,"fÃŃa":2540,"name":2541,"inaciÃ³n":2542,"Ġown":2543,"Ġclim":2544,"Ġself":2545,"ican":2546,"ÐµÐµ":2547,"iencia":2548,"Ġlogr":2549,"Ġinvol":2550,"bas":2551,"pp":2552,"ved":2553,"Ġoff":2554,"ĠEstos":2555,"ĠÐ¸Ð½":2556,"Ġdispon":2557,"ĠâĢľ":2558,"Ġdescubr":2559,"uf":2560,"Ġoc":2561,"Ġalm":2562,"ĠÐ¿ÐµÑĢ":2563,"Ġ200":2564,"ĠÑģÐ¾":2565,"ÐºÑĥ":2566,"ione":2567,"Ġequipo":2568,"ond":2569,"olver":2570,"ierto":2571,"Ġcosas":2572,"Ġboth":2573,"Ġobjeto":2574,"Ġbest":2575,"ĠÑįÑĤ":2576,"...":2577,"Ġeconom":2578,"Por":2579,"Ġever":2580,"Ġespa":2581,"odr":2582,"Ġresul":2583,"ĠÑĨ":2584,"avor":2585,"ĠÃł":2586,"Äĩ":2587,"Ġsame":2588,"Ġmal":2589,"Ġfa":2590,"ÃŃm":2591,"Ġcuer":2592,"icio":2593,"â£¿":2594,"Ã£":2595,"åŃ":2596,"ences":2597,"Ġdown":2598,"osa":2599,"iss":2600,"Ġunos":2601,"Ġels":2602,"Ġlead":2603,"Ġtrain":2604,"Ġnuevo":2605,"Ġincluyendo":2606,"bor":2607,"udo":2608,"zy":2609,"ense":2610,"Ġdir":2611,"Ġdivers":2612,"Ġtak":2613,"porta":2614,"Ġporque":2615,"uerra":2616,"Ġcomplex":2617,"Ġllev":2618,"ĠÃºlti":2619,"ĠdiseÃ±o":2620,"Ġherramientas":2621,"Ġvelocidad":2622,"bles":2623,"Ð¾Ñĩ":2624,"Ġenc":2625,"ĠEuro":2626,"Ġ100":2627,"Ġbeing":2628,"ĠprÃ¡c":2629,"Ġqui":2630,"Ġbuena":2631,"Ġlargo":2632,"Ġknown":2633,"Ġentender":2634,"Ġellos":2635,"ĠEspaÃ±":2636,"ĠAnd":2637,"ĠHTML":2638,"De":2639,"lio":2640,"land":2641,"Ġesper":2642,"Ġgar":2643,"ized":2644,"plos":2645,"ÐºÐ°":2646,"lab":2647,"åĴ":2648,"Ġend":2649,"Ġhuev":2650,"els":2651,"ĠAc":2652,"iew":2653,"Ġprom":2654,"Ġcorr":2655,"Ġinclude":2656,"ficiente":2657,"cciÃ³n":2658,"zas":2659,"ĥ½":2660,"titu":2661,"Ġfre":2662,"Ġamor":2663,"ited":2664,"Ð°Ð¼Ð¸":2665,"Ġsignific":2666,"Ġproblema":2667,"ÐµÐºÑĤ":2668,"Ġsaber":2669,"Ġmantener":2670,"Ġseguridad":2671,"erÃŃa":2672,"Ġcamb":2673,"Ġsich":2674,"Ġinput":2675,"tics":2676,"ieren":2677,"ĠrÃ¡p":2678,"Ġvarios":2679,"Ġvariable":2680,"Ġmusic":2681,"Ġinstal":2682,"Ġquieres":2683,"Ġpalabras":2684,"åĴĮ":2685,"hing":2686,"Ġair":2687,"Ġtend":2688,"alth":2689,"Ġeng":2690,"Ġprog":2691,"Ġcebol":2692,"tom":2693,"âķ":2694,"Ġapl":2695,"ont":2696,"Ġline":2697,"Ġecu":2698,"Ġbat":2699,"lex":2700,"Ġnorm":2701,"Ġrange":2702,"ĠÃ¡re":2703,"Ġtexto":2704,"'m":2705,"ique":2706,"Ġeas":2707,"Ġfavor":2708,"ceite":2709,"Ġprepar":2710,"ĠdifÃŃ":2711,"Ġdebido":2712,"Ġexperiencia":2713,"Ġnatural":2714,"dic":2715,"ken":2716,"rent":2717,"Ð°Ð³":2718,"ientÃŃ":2719,"Ġconstruc":2720,"'re":2721,"cy":2722,"ĠcientÃŃ":2723,"Ġproper":2724,"ĠcaracterÃŃsticas":2725,"Ġconjun":2726,"bers":2727,"mar":2728,"mientos":2729,"åľ":2730,"ĠÑĤÐ¾":2731,"Ð°ÑİÑĤ":2732,"Ġvi":2733,"ĠSu":2734,"ĠPl":2735,"ĠLo":2736,"ificar":2737,"ĠRec":2738,"ficos":2739,"Ġ</":2740,"pende":2741,"ĠsegÃºn":2742,"Ġtemperatura":2743,"net":2744,"Ġincre":2745,"olÃ³g":2746,"ĠSo":2747,"ĠIA":2748,"itec":2749,"entajas":2750,"Ġcampo":2751,"ffe":2752,"Ġminutos":2753,"Ġestructura":2754,"</":2755,"iciÃ³n":2756,"ning":2757,"ĠÙ":2758,"Ġtro":2759,"Ġlight":2760,"Ġune":2761,"igos":2762,"Ġabs":2763,"Ġgrande":2764,"Ġpatr":2765,"Ġfactores":2766,"Ġinteligencia":2767,"Ġfundament":2768,"ÑıÑĤ":2769,"Ġimpro":2770,"Ġlook":2771,"ĠcuÃ¡n":2772,"Ġbased":2773,"Ġlarge":2774,"Ð½Ð¾ÑģÑĤÑĮ":2775,"Para":2776,"gin":2777,"ker":2778,"lla":2779,"men":2780,"Ġcin":2781,"Ġfel":2782,"Ġans":2783,"ull":2784,"ĠPre":2785,"ĠCal":2786,"emplos":2787,"Ã¶n":2788,"ĠÐ¸ÑģÐ¿Ð¾Ð»ÑĮÐ·":2789,"gaciÃ³n":2790,"Ġah":2791,"Ġdud":2792,"ĠtÃ©r":2793,"Ġeduc":2794,"Ġanti":2795,"less":2796,"Ġinterac":2797,"ologÃŃa":2798,"Ġconocido":2799,"Ġpractic":2800,"Ã£o":2801,"Ġcop":2802,"Ġsom":2803,"Ġestado":2804,"Ġapplica":2805,"Ġalguna":2806,"ĠniÃ±os":2807,"Ġigual":2808,"Script":2809,"Un":2810,"Ġ][":2811,"terior":2812,"iron":2813,"ĠestÃ©":2814,"Ġoptim":2815,"Ġgrandes":2816,"åı¯":2817,"Ġorganiz":2818,"IN":2819,"Ġpack":2820,"Ġdev":2821,"char":2822,"ĠThey":2823,"Ġusuarios":2824,"Ġcharacter":2825,"Ġintegral":2826,"hl":2827,"æĹ":2828,"tiene":2829,"entro":2830,"Ġconv":2831,"Ġconvers":2832,"Ġass":2833,"Ġaseg":2834,"ĠÐ¼Ð¾Ð³":2835,"Ġevent":2836,"Ġfinal":2837,"ĠÃ¨":2838,"ĠÃ©l":2839,"Ġherramienta":2840,"Ġindepend":2841,"What":2842,"æĸ":2843,"ors":2844,"Ġconver":2845,"Ã©ctr":2846,"etas":2847,"ÐµÑĤÑģÑı":2848,"Ġcho":2849,"Ġescribir":2850,"indows":2851,"\">":2852,"ST":2853,"ĠpÃ¡g":2854,"Ġoder":2855,"ÐµÑĪ":2856,"Ġrealiz":2857,"Ãºbl":2858,"Ġ==":2859,"Ġ30":2860,"Ġadap":2861,"render":2862,"Ġtype":2863,"tml":2864,"ĠQu":2865,"inux":2866,"ĠÐļ":2867,"ĠEr":2868,"Ġcomput":2869,"Ġejemplos":2870,"Ġcolores":2871,"Ġusuario":2872,"Ġpublic":2873,"Ġpossible":2874,"12":2875,"50":2876,"utr":2877,"ä¾":2878,"ades":2879,"Ġfal":2880,"Ġsem":2881,"ÑĥÑĢ":2882,"ibr":2883,"Ġpriv":2884,"Ð¾Ð²Ð°ÑĤÑĮ":2885,"ĠWh":2886,"clus":2887,"Ð³ÑĢ":2888,"Ġeven":2889,"Ġcaf":2890,"18":2891,"cos":2892,"Ġbro":2893,"ĠMo":2894,"ÐµÐ±":2895,"Ġbeh":2896,"Ġkann":2897,"Ġclase":2898,"ĠÐ¿ÑĢÐµÐ´":2899,"fy":2900,"ÅĽ":2901,"è®":2902,"èĥ½":2903,"Ġag":2904,"Ġpad":2905,"tis":2906,"tat":2907,"Ġcont":2908,"ĠPuedes":2909,"ÑĭÑħ":2910,"tividad":2911,"Ġris":2912,"ĠÐºÐ¾Ð½":2913,"Ġcalor":2914,"Ġnecesidades":2915,"Ġparticular":2916,"Ġtareas":2917,"ĠmÃ©todo":2918,"ĠEspaÃ±a":2919,"ĠdÃ©":2920,"tac":2921,"Ġgen":2922,"istas":2923,"Ð¸ÑĤÐµÐ»ÑĮ":2924,"Ġdoes":2925,"Ġdiferencia":2926,"Ġexperiment":2927,"Ġempresa":2928,"cra":2929,"Ġcat":2930,"Ġmach":2931,"Ġfuego":2932,"Ġacces":2933,"Ġbuscar":2934,"ĠespaÃ±ol":2935,"ness":2936,"ÃŁ":2937,"åº":2938,"enn":2939,"Ġaround":2940,"Ġmass":2941,"Ġbal":2942,"Ġrev":2943,"Ġcompon":2944,"ĠĠĠĠĠĠĠĠĠĠĠĠĠĠĠĠ":2945,"ÑħÐ¾Ð´":2946,"Ġvariedad":2947,"Ġplaneta":2948,"Ġpreguntas":2949,"Ġcontenido":2950,"Ex":2951,"Th":2952,"tle":2953,"isis":2954,"ÑĭÐ²":2955,"Ġresist":2956,"ĠserÃŃa":2957,"ĠÐ¾Ñģ":2958,"Ġmaking":2959,"Ġvalores":2960,"ield":2961,"ON":2962,"ause":2963,"Ġatra":2964,"Ġaunque":2965,"Ã³mo":2966,"ĠelÃ©ctr":2967,"imientos":2968,"Ġrelig":2969,"Ġjo":2970,"Ġacor":2971,"Ġindividual":2972,"gas":2973,"å°":2974,"ties":2975,"adamente":2976,"Ð¸Ñİ":2977,"Ġconoc":2978,"igura":2979,"ĠÐ¿Ð¾Ð¼":2980,"Ð½Ð¾Ðµ":2981,"Ã©rica":2982,"Ġstud":2983,"ĠpartÃŃcul":2984,"â£¿â£¿":2985,"ĠtÃ©rmin":2986,"Que":2987,"ĠJo":2988,"Ġempe":2989,"Ġeleg":2990,"Ġtema":2991,"Ġpattern":2992,"Ġexplor":2993,"Ġproyectos":2994,"AquÃŃ":2995,"lÃ©s":2996,"Ġtan":2997,"Ġdepende":2998,"tido":2999,"Ġgive":3000,"ĠEst":3001,"ĠIns":3002,"Ġpot":3003,"Ġprimer":3004,"Ġtasks":3005,"Ġscript":3006,"ĠÐĶ":3007,"Ð¾Ðµ":3008,"Ġoften":3009,"Ġmuest":3010,"dition":3011,"ĠAssistant":3012,"bal":3013,"ule":3014,"ward":3015,"Ġaque":3016,"Ġpour":3017,"ĠÐĲ":3018,"ĠÐŃ":3019,"Ġflu":3020,"Ġbene":3021,"ÑĤÐµÑĢ":3022,"Ġtop":3023,"Ġconstr":3024,"icidad":3025,"Ġclar":3026,"Ġprograma":3027,"Ġfew":3028,"Ġsociedad":3029,"Ġcommon":3030,"tonces":3031,"ĠGoogle":3032,"cla":3033,"div":3034,"Ġbot":3035,"Ġestre":3036,"ĠðŁĺ":3037,"Ġindustr":3038,"ĠniÃ±o":3039,"Ġpunto":3040,"ĠJavaScript":3041,"Ġaceite":3042,"ĠdÃŃas":3043,"aron":3044,"ĠmÃ¡":3045,"Ġext":3046,"Ġevitar":3047,"Ġpata":3048,"Ġprincipales":3049,"æľī":3050,"Ġcebolla":3051,"Si":3052,"hip":3053,"med":3054,"rÃ¡":3055,"vil":3056,"Ãª":3057,"ende":3058,"ungen":3059,"ĠÐĺ":3060,"Ġhere":3061,"edor":3062,"Ġaspec":3063,"Ġdisfr":3064,"Ð´Ð°":3065,"ĠVer":3066,"Ġregular":3067,"Ġgrav":3068,"Ġrequire":3069,"ĠeconÃ³m":3070,"Ġsto":3071,"Ġment":3072,"iting":3073,"itud":3074,"Ġelse":3075,"Ġcome":3076,"abr":3077,"iblio":3078,"ĠÐºÐ¾Ð¼":3079,"Ġemp":3080,"ĠThese":3081,"Ġvalue":3082,"Ð¶Ðµ":3083,"Ġprincipal":3084,"Ġimpac":3085,"Ġuniverso":3086,"ling":3087,"Ġagre":3088,"Ġsenci":3089,"Ġmight":3090,"Ġye":3091,"Ġhacia":3092,"Ġable":3093,"Ġmedida":3094,"Ġideas":3095,"ĠÐ»Ñİ":3096,"Ġcultura":3097,"ain":3098,"mer":3099,"tan":3100,"tex":3101,"Ġesa":3102,"ÑģÐ»Ð¸":3103,"ĠCo":3104,"ĠIs":3105,"ĠkÃ¶n":3106,"Ġinterf":3107,"ills":3108,"arious":3109,"Ġincluyen":3110,"Ġmor":3111,"ism":3112,"Ð°Ñħ":3113,"Ġuser":3114,"ĠEstas":3115,"oluciÃ³n":3116,"ape":3117,"Ġspe":3118,"Ġoportun":3119,"Ġescal":3120,"Ġhttps":3121,"Ð°ÑĪ":3122,"amples":3123,"Ġpartir":3124,"togra":3125,"Ġimage":3126,"Ġaproxim":3127,".-":3128,"å¸":3129,"Ġsource":3130,"taciÃ³n":3131,"let":3132,"Ġvarious":3133,"aces":3134,"Ã±ar":3135,"ĠHay":3136,"data":3137,"llas":3138,"Ġhaya":3139,"Ġbuen":3140,"Ġtab":3141,"uno":3142,"Ġeso":3143,"Ġveces":3144,"ouble":3145,"Ġrece":3146,"ames":3147,"abilidad":3148,"isten":3149,"ious":3150,"Ġbefore":3151,"ĠopciÃ³n":3152,"Ġnecesario":3153,"Ġtermin":3154,"Ġfeel":3155,"Ġtrabajar":3156,"Ġidi":3157,"âĸĪâĸĪ":3158,"pt":3159,"Ġcum":3160,"Ġluego":3161,"Ġmens":3162,"Ð»Ñİ":3163,"Ġformas":3164,"utas":3165,"Ġ13":3166,"Ð¸Ð±":3167,"ĠÐ²Ñģ":3168,"forma":3169,"ĠðŁĳ":3170,"Ġcarr":3171,"Ġ202":3172,"Ġobjetivo":3173,"ĠCuando":3174,"ĠdifÃŃcil":3175,"ai":3176,"bra":3177,"è§":3178,"Ġcle":3179,"Ġsug":3180,"ÐµÐ¿":3181,"Ġcompos":3182,"Ġblan":3183,"Ġpodemos":3184,"ER":3185,"yle":3186,"Ġ&":3187,"Ġsch":3188,"Ã³l":3189,"Ġhar":3190,"Ġhora":3191,"raw":3192,"Ġconn":3193,"ÐºÐ¾":3194,"ĠÂ·":3195,"Ð¸ÑĤÐµ":3196,"Ġdeben":3197,"echa":3198,"Ġmisma":3199,"Ġsever":3200,"antas":3201,"ĠBl":3202,"ieron":3203,"ĠGe":3204,"Ġneur":3205,"Ġopciones":3206,"Ð½ÑĭÐ¼":3207,"Ġfeat":3208,"Ġprimera":3209,"æķ":3210,"Ġstra":3211,"tell":3212,"Ð½Ð¾Ð²":3213,"ĠseÃ±":3214,"Ġgas":3215,"abor":3216,"iza":3217,"ĠDis":3218,"tual":3219,"Ġqual":3220,"ĠhabÃŃa":3221,"ĠrelaciÃ³n":3222,"work":3223,"Ġobserv":3224,"Ġcambio":3225,"ition":3226,"Ġtipos":3227,"Ġpueda":3228,"Ġ25":3229,"uck":3230,"Ġhealth":3231,"Ġtrata":3232,"Ġpollo":3233,"Ġstate":3234,"Ġdistancia":3235,"Ġenergy":3236,"Ð¾Ð·Ð´":3237,"Ġexperience":3238,"Ġenviron":3239,"ĠmatemÃ¡ticas":3240,"Los":3241,"uan":3242,"Ġafec":3243,"Ġdentro":3244,"Ġpon":3245,"Ã¡tico":3246,"Ð½Ð¸":3247,"Ġgan":3248,"ÑĢÐ¾Ñģ":3249,"Ġserver":3250,"anda":3251,"Ð°Ð½Ð¸Ñı":3252,"ĠThere":3253,"Ð¾Ð±Ñĭ":3254,"Ġdistin":3255,"Ġconceptos":3256,"ĠÑģÐ²Ð¾":3257,"Ġich":3258,"Ġaument":3259,"Ġsci":3260,"Ġframe":3261,"Ġnada":3262,"Ġrelev":3263,"ily":3264,"ĠSta":3265,"utar":3266,"Ġacer":3267,"Ġwithout":3268,"Ġarr":3269,"Ġart":3270,"ĠOn":3271,"Ġcoun":3272,"Ġambiente":3273,"Ġdocument":3274,"Ġencuentra":3275,"Ġfollowing":3276,"Ġalmac":3277,"odrÃŃas":3278,"by":3279,"ç»":3280,"Ġcult":3281,"Ġlife":3282,"Ġnon":3283,"ÑĢÐ°Ð½":3284,"Ã©tica":3285,"cionales":3286,"Ġresolver":3287,"Ð¾Ð¼Ñĥ":3288,"ï¼ļ":3289,"Ġvarias":3290,"redientes":3291,"Ġpermiti":3292,"Ġkeep":3293,"ĠinglÃ©s":3294,"Ġbecause":3295,"Ġswitch":3296,"ĠpÃ¡gina":3297,"')":3298,"iantes":3299,"ðĿ":3300,"ĠÐ¢":3301,"Ġbiblio":3302,"Ð°Ñİ":3303,"Ġsepar":3304,"Ġimpres":3305,"Ġresources":3306,"Ġright":3307,"ĠFran":3308,"Ġchall":3309,"ficas":3310,"ä¸į":3311,"Ġraz":3312,"turas":3313,"Ġwebs":3314,"Ġsentido":3315,"ĠAlgunos":3316,"Ġcomenzar":3317,"hn":3318,"Ġagr":3319,"arr":3320,"Ġou":3321,"Ġnicht":3322,"Ð½Ð¸Ðº":3323,"ify":3324,"Ġutilizan":3325,"Ġplata":3326,"Ġsiguientes":3327,"Ġgusto":3328,"Ġproyecto":3329,"Ġimagen":3330,"Ġpapel":3331,"16":3332,"Con":3333,"Me":3334,"ben":3335,"light":3336,"è¦":3337,"Ġfaci":3338,"raciÃ³n":3339,"usti":3340,"ĠEm":3341,"ĠLinux":3342,"Ġ14":3343,"ĠestÃ¡s":3344,"Ġsind":3345,"Ġrelacion":3346,"Ġtengo":3347,"aleza":3348,"Ġfuturo":3349,"Ġmediante":3350,"fera":3351,"Ġcase":3352,"leg":3353,"Ġvac":3354,"Ġmean":3355,"Ġcommand":3356,"Ġcurrent":3357,"ĠpaÃŃses":3358,"dr":3359,"uj":3360,"Ġtemp":3361,"Ġsa":3362,"Ġfer":3363,"Ġess":3364,"Ġalta":3365,"Ġalcan":3366,"Ã±as":3367,"ieve":3368,"ĠRed":3369,"Ġdebes":3370,"Ġsystems":3371,"Ġmagn":3372,"Ġcambiar":3373,"Ġoriginal":3374,"Puedes":3375,"Sure":3376,"vi":3377,"ya":3378,"esta":3379,"Ġaud":3380,"ically":3381,"ingle":3382,"Ġglo":3383,"ĠSal":3384,"izar":3385,"ĠÐ¸Ð¼":3386,"vern":3387,"ĠGP":3388,"Ġeval":3389,"Ð¸Ð¼ÐµÑĢ":3390,"Ġmenor":3391,"Ġdesarrollar":3392,"Ġalgorith":3393,"å¯":3394,"Ġ?":3395,"Ġdid":3396,"cido":3397,"Ġlabor":3398,"ĠAp":3399,"ÑĭÐ¹":3400,"Ġjuegos":3401,"ĠÑģÐ¿":3402,"ĠĠĠĠĠĠĠĠĠ":3403,"Ġhecho":3404,"Ġmejores":3405,"Ġhumano":3406,"Ġllegar":3407,"plain":3408,"Ġproporcionar":3409,"è¦ģ":3410,"ha":3411,"vas":3412,"ĠÐľ":3413,"Ġvan":3414,"Ġtotal":3415,"oud":3416,"illo":3417,"Ġ16":3418,"Ġimages":3419,"Ġformat":3420,"Ġtransform":3421,"ĠaplicaciÃ³n":3422,"ĠalgÃºn":3423,"Ġreduce":3424,"Ġasegur":3425,"Can":3426,"SS":3427,"day":3428,"Ġach":3429,"Ġsos":3430,"Ġlec":3431,"oss":3432,"tera":3433,"umento":3434,"ĠĠĠĠĠĠĠĠĠĠ":3435,"ĠWindows":3436,"ĠcreaciÃ³n":3437,"ĠOr":3438,"Ġverd":3439,"Ġvariables":3440,"Ġprovid":3441,"Ġservid":3442,"Ø§ÙĦ":3443,"ĠcomprensiÃ³n":3444,"Ġgalax":3445,"Ġcuerpo":3446,"CÃ³mo":3447,"Hay":3448,"II":3449,"ka":3450,"Ġdia":3451,"ints":3452,"Ġfoc":3453,"imin":3454,"Ġgreat":3455,"tric":3456,"Ġsure":3457,"ĠIr":3458,"Ġconsul":3459,"icial":3460,"tenciÃ³n":3461,"Ġinterpre":3462,"Ð°Ð½ÑĤ":3463,"Ġopin":3464,"Ġstand":3465,"Ġestoy":3466,"Ġquestions":3467,"Ġprecis":3468,"Ġdevelopment":3469,"ĠtÃŃ":3470,"Ġtama":3471,"Ġciencia":3472,"Ġstruc":3473,"Ġox":3474,"ÑģÐ»":3475,"acer":3476,"ĠTr":3477,"arias":3478,"adora":3479,"Ġvalues":3480,"Ġmasa":3481,"Ġfood":3482,"ä½ł":3483,"Ġphys":3484,"Ġamplia":3485,"Ġpropiedad":3486,"Ġempezar":3487,"Ġimpacto":3488,"TP":3489,"Ðļ":3490,"å¥":3491,"Ġaus":3492,"Ġmir":3493,"Ġvar":3494,"iera":3495,"Ġapp":3496,"Ġfuncion":3497,"Ġcolumn":3498,"ĠÑĤÑĢ":3499,"ficient":3500,"Ġerror":3501,"Ġinstruc":3502,"Ġdependiendo":3503,"Ġeffec":3504,"Ġrepresenta":3505,"Ġclave":3506,"rbol":3507,"Ġpur":3508,"Ġuntil":3509,"Ð°Ñĩ":3510,"uso":3511,"Ġofre":3512,"try":3513,"ĠCar":3514,"erse":3515,"Ġbetter":3516,"Ġexisten":3517,"Ġstart":3518,"Ġfuente":3519,"Ġestilo":3520,"ĠÐ¼Ð¾Ð³ÑĥÑĤ":3521,"Ġseveral":3522,"kes":3523,"ole":3524,"onal":3525,"ĠgÃ©n":3526,"izaciÃ³n":3527,"ĠestÃ©n":3528,"ĠGu":3529,"Ġfunciones":3530,"Ġrecord":3531,"Ġ50":3532,"Ġproducto":3533,"Ġauto":3534,"Ġsupport":3535,"ĠÐºÐ¾ÑĤÐ¾ÑĢÑĭÐµ":3536,"Ġbibliote":3537,"ctions":3538,"ï¸":3539,"Ġpic":3540,"anos":3541,"Ġmos":3542,"Ġmic":3543,"une":3544,"Ġfon":3545,"Ġtoda":3546,"ige":3547,"tero":3548,"ird":3549,"ĠRes":3550,"Ġyourself":3551,"ficult":3552,"Ġgrup":3553,"Ġavail":3554,"ÐµÐ³Ð¾":3555,"ways":3556,"html":3557,"yg":3558,"Ġ>":3559,"Ġpuer":3560,"ĠmÃ³":3561,"Ġremo":3562,"ĠdespuÃ©s":3563,"gain":3564,"ÑĪÐµ":3565,"ĠÃ¼":3566,"ÑīÐµÑģÑĤÐ²":3567,"ĠdirecciÃ³n":3568,"Ġimpact":3569,"Ġparticip":3570,"ï¸ı":3571,"ET":3572,"mend":3573,"nos":3574,"åĩ":3575,"Ġtax":3576,"Ġless":3577,"Ġmade":3578,"Ġyo":3579,"Ġwer":3580,"ĠSome":3581,"ume":3582,"laciÃ³n":3583,"Ġamigos":3584,"Ġadvan":3585,"Ġverdad":3586,"ĠgrÃ¡":3587,"Ġlibros":3588,"Ġmovimiento":3589,"Ġhumanos":3590,"Ġindividu":3591,"Ð°ÑĨÐ¸Ð¸":3592,"Ġalmacen":3593,"iod":3594,"uto":3595,"Ġamo":3596,"ĠfÃ¼r":3597,"Ġcontain":3598,"ĠCl":3599,"ÑĥÐ¼":3600,"ĠWor":3601,"Ġdifficult":3602,"cular":3603,"Ġrequi":3604,"Ã¨n":3605,"Ð¸ÑģÐ»":3606,"Ġnaturaleza":3607,"play":3608,"Ġtechnolog":3609,"Ġtradi":3610,"Ġprogres":3611,"How":3612,"éĹ":3613,"Ġsart":3614,"time":3615,"ader":3616,"Ġbody":3617,"Ġword":3618,"ush":3619,"igen":3620,"quest":3621,"Ġquien":3622,"Ġarea":3623,"Ġdistribu":3624,"Ġplace":3625,"ĠOne":3626,"genier":3627,"ĠÐ·Ð°":3628,"Ġtenga":3629,"Ġdispositivos":3630,"Ġverduras":3631,"hor":3632,"son":3633,"Ġcel":3634,"Ġpython":3635,"anza":3636,"tio":3637,"Ġsex":3638,"respon":3639,"Ġexiste":3640,"Ġcuanto":3641,"Ġteam":3642,"Ġconsid":3643,"Ġcarne":3644,"Ġprogramas":3645,"Ġfuerza":3646,"ĠsoluciÃ³n":3647,"ĠsartÃ©n":3648,"Ar":3649,"QL":3650,"ahr":3651,"mon":3652,"èĢ":3653,"éĢ":3654,"Ġdete":3655,"Ġwie":3656,"Ġrepe":3657,"ĠCan":3658,"iene":3659,"Ġpredic":3660,"Ġunder":3661,"Ġexplicar":3662,"Ġcommun":3663,"Ġsteps":3664,"Ġmezcla":3665,"Ġenvironment":3666,"Here":3667,"ove":3668,"arth":3669,"Ġano":3670,"Ġsean":3671,"Ġthough":3672,"Ġiss":3673,"Ġdesaf":3674,"ÐµÐ¶":3675,"Ġ=>":3676,"Ð¾Ð»Ð½":3677,"Ð¾Ð³ÑĢ":3678,"Ð·Ñĭ":3679,"Ġconocimiento":3680,"ĠÃ¡rbol":3681,"ĠinvestigaciÃ³n":3682,"Ġevery":3683,"Ġespacio":3684,"Ġevalu":3685,"15":3686,"ban":3687,"dan":3688,"ked":3689,"ng":3690,"ĠaÃ±":3691,"read":3692,"Ġour":3693,"Ġense":3694,"roz":3695,"Ġintro":3696,"Ġvuel":3697,"Ġguerra":3698,"Ġalterna":3699,"Ð»ÑĮ":3700,"ĠMed":3701,"Ġcompu":3702,"ĠquÃŃm":3703,"Ġarqu":3704,"Ġchang":3705,"Ġestaba":3706,"Ġrespec":3707,"Ġgenerar":3708,"Ġpaso":3709,"Ġworks":3710,"Ġderech":3711,"Ġsupuesto":3712,"Ġconstante":3713,"Ġajus":3714,"âĢįðŁ":3715,"Ġbajo":3716,"ĠpelÃŃcula":3717,"Ġgrupo":3718,"come":3719,"ef":3720,"å¼":3721,"Ġtel":3722,"ething":3723,"Ġ->":3724,"ĠMan":3725,"Ġlocal":3726,"Ð²ÐµÑĤ":3727,"Ġpoint":3728,"Ġweight":3729,"Ġhablar":3730,"Ġnuevas":3731,"Ġmateriales":3732,"Ġfound":3733,"Ã¡lisis":3734,"ĠnÃºmeros":3735,"Ġfactors":3736,"Ġsentir":3737,"Ġactividades":3738,"Ġjugadores":3739,"Ġdecisiones":3740,"17":3741,"Las":3742,"Te":3743,"ãĤ":3744,"Ġur":3745,"onom":3746,"ilibr":3747,"ĠTer":3748,"ÑĥÐ¶":3749,"porte":3750,"ĠÐ½Ð°Ð¿":3751,"Ð²Ð»Ñı":3752,"Ġprecio":3753,"Ġkil":3754,"Ġhabl":3755,"Ġcorre":3756,"Ġlibre":3757,"Ġcomunes":3758,"uestas":3759,"Ġfamilia":3760,"Ġreducir":3761,"Ġtechni":3762,"Ġcells":3763,"Ġapproach":3764,"Ġnuestro":3765,"åı¯ä»¥":3766,"ĠpartÃŃculas":3767,"ss":3768,"Â°":3769,"Ùħ":3770,"ÙĨ":3771,"åĨ":3772,"æ³":3773,"Ġnp":3774,"Ġnor":3775,"itz":3776,"imes":3777,"Ġgiv":3778,"Ġcomien":3779,"Ġcomida":3780,"ĠcomÃºn":3781,"ĠIm":3782,"ĠMon":3783,"Ġaccess":3784,"Ġarte":3785,"ĠÑĢÐ°Ñģ":3786,"Ġnecess":3787,"Ġnecesitas":3788,"Ġsociales":3789,"Ġrealidad":3790,"Ġhardware":3791,"Ġacordes":3792,"ls":3793,"Ġfur":3794,"ÃŃr":3795,"Ã¡r":3796,"Ġreac":3797,"Ġcomporta":3798,"utor":3799,"Ð¸Ð³":3800,"Ġja":3801,"Ġhaber":3802,"ĠâĢĵ":3803,"Ġprimero":3804,"ĠbÃ¡sicos":3805,"Ġdomin":3806,"Ġalgorit":3807,"ĠconstrucciÃ³n":3808,"ĠkÃ¶nnen":3809,"ĠtamaÃ±o":3810,"99":3811,"OS":3812,"Ġ%":3813,"Ġdich":3814,"Ġcare":3815,"alada":3816,"ils":3817,"Ġaliment":3818,"tring":3819,"Ġonline":3820,"Ġcreating":3821,"ĠÐ¾Ð¿":3822,"genes":3823,"Ġskills":3824,"Ġconstruir":3825,"åĽ":3826,"Ġdue":3827,"Ġpie":3828,"Ġfran":3829,"Ġconcent":3830,"Ġrep":3831,"Ġalred":3832,"ĠBar":3833,"Ġrom":3834,"Ġclic":3835,"Ġvery":3836,"Ġavanz":3837,"Ġproductos":3838,"Ġtomate":3839,"Ġsuperfici":3840,"Ð½Ð°Ñı":3841,"Ġdeseas":3842,"www":3843,"Ġpotenti":3844,"Ġanswer":3845,"Ġservidor":3846,"\");":3847,"bs":3848,"hol":3849,"ki":3850,"mes":3851,"Ġagain":3852,"Ġcier":3853,"Ġpant":3854,"Ġsay":3855,"cios":3856,"Ġenf":3857,"Ġescu":3858,"row":3859,"Ġning":3860,"Ġofrec":3861,"ĠShe":3862,"ĠCons":3863,"Ġarray":3864,"Ð³Ð¾":3865,"Ġcomunidad":3866,"Ġinstall":3867,"Ø§Ø":3868,"Ġvideoj":3869,"Ġhuevos":3870,"ĠcafÃ©":3871,"();":3872,"ye":3873,"Ġdouble":3874,"Ġpag":3875,"ĠpÃºbl":3876,"cimiento":3877,"tique":3878,"teg":3879,"Ġfree":3880,"Ġread":3881,"Ġthings":3882,"ĠTur":3883,"ĠDo":3884,"ĠGran":3885,"Ġdiscr":3886,"ĠUse":3887,"ights":3888,"Ġcalled":3889,"Ġvariar":3890,"olution":3891,"Ġcentr":3892,"Ġpubl":3893,"ĠÐ±ÑĭÑĤÑĮ":3894,"Ġproduce":3895,"Ġdigital":3896,"Ġsomething":3897,"Ġavailable":3898,"iado":3899,"mine":3900,"python":3901,"tÃ³":3902,"å·":3903,"Ġliv":3904,"orr":3905,"ank":3906,"ances":3907,"Ġmel":3908,"Ġconduc":3909,"abe":3910,"emon":3911,"ĠBo":3912,"Ġsoy":3913,"Ġgratu":3914,"Ġterr":3915,"ĠAmer":3916,"Ġcalcular":3917,"Ġjugador":3918,"Ġmercado":3919,"Ġmachine":3920,"ming":3921,"Ġtable":3922,"Ġps":3923,"Ġlic":3924,"iness":3925,"ÑĤÐ¾Ð±Ñĭ":3926,"atura":3927,"Ġsec":3928,"culo":3929,"Ġpoints":3930,"itaciÃ³n":3931,"uerda":3932,"Ġevid":3933,"Ð¾Ð»ÑĮÐºÐ¾":3934,"ombres":3935,"Ġwrite":3936,"An":3937,"zan":3938,"á»":3939,"Ġacid":3940,"Ġloop":3941,"guien":3942,"ĠÐ¼Ð½":3943,"ä¸ª":3944,"ielo":3945,"Ġentrada":3946,"Ġgustar":3947,"Ġazul":3948,"Ġlograr":3949,"ius":3950,"jects":3951,"Ġsyn":3952,"unca":3953,"Ġinfin":3954,"Ġnutr":3955,"Ġnow":3956,"ĠWord":3957,"cuencia":3958,"ential":3959,"Ð¾ÑĢÐ¼":3960,"Ġmind":3961,"Ġprovides":3962,"Ġefectos":3963,"ĠpequeÃ±o":3964,"âĢįâ":3965,"ĠtÃ©cnicas":3966,"Ġfundamental":3967,"Ġwerden":3968,"org":3969,"Ġenti":3970,"itan":3971,"Ġcontex":3972,"ather":3973,"Ġalways":3974,"ember":3975,"ÑĥÐµÑĤ":3976,"Ġ--":3977,"ĠData":3978,"Ġperiod":3979,"Ġserie":3980,"ĠGra":3981,"till":3982,"Ġub":3983,"Ġrecon":3984,"Ġambos":3985,"Ġequilibr":3986,"Ġmarket":3987,"ĠpodrÃŃas":3988,"Ġhoy":3989,"atis":3990,"Ġcambios":3991,"Ġgrow":3992,"Ġensure":3993,"Ġjuntos":3994,"Ġargument":3995,"Ġconjunto":3996,"ĠÃ¼ber":3997,"PodrÃŃas":3998,"sc":3999,"tres":4000,"Ġtre":4001,"ciendo":4002,"Ġenfr":4003,"Ġhim":4004,"ĠAgre":4005,"ĠPla":4006,"ival":4007,"ĠMin":4008,"Ġorg":4009,"ĠÐ²Ð°Ð¼":4010,"ĠÑģÐ°Ð¼":4011,"Ġquick":4012,"Ġlevel":4013,"Ġemple":4014,"llos":4015,"ĠðŁ§":4016,"Ġsino":4017,"Ġtemas":4018,"ĠpodrÃŃan":4019,"Ġsoluciones":4020,"Ġdisponibles":4021,"Ġsignificant":4022,"åľ¨":4023,"Ġpatatas":4024,"Ġanother":4025,"14":4026,"Se":4027,"Ġaire":4028,"tel":4029,"Ġanterior":4030,"Ð½ÑĥÑİ":4031,"Ġalguien":4032,"ury":4033,"lot":4034,"tively":4035,"thers":4036,"Ġcuadr":4037,"Ġje":4038,"Ġjugar":4039,"app":4040,"tores":4041,"Ġmedia":4042,"ÐµÐ»Ð¾Ð²":4043,"Ġshow":4044,"Ġfinan":4045,"Ġcapital":4046,"ĠÐ³Ð¾Ð´":4047,"Ġrefiere":4048,"Ġefecto":4049,"Ġpalabra":4050,"ĠprÃ¡ctica":4051,"Ġimprove":4052,"ĠtÃ©rminos":4053,"Ġmuestra":4054,"200":4055,"==":4056,"dis":4057,"Ġta":4058,"iff":4059,"ĠDur":4060,"ĠÑģÐ¾Ð·Ð´":4061,"Ġmanag":4062,"alized":4063,"Ã¨re":4064,"Ġduring":4065,"Ġrecommend":4066,"Ġauch":4067,"äºº":4068,"Ð°Ð±Ð¾ÑĤ":4069,"Ġtypes":4070,"Ġfacil":4071,"Ġalrededor":4072,"bier":4073,"gs":4074,"mit":4075,"ĠaÃºn":4076,"Ġdrag":4077,"inter":4078,"Ġfield":4079,"Ġven":4080,"Ġvent":4081,"oles":4082,"elo":4083,"uts":4084,"Ġexplain":4085,"Ġcomprender":4086,"Ġmeas":4087,"gua":4088,"Ġdisc":4089,"Ġpob":4090,"ducciÃ³n":4091,"uerzo":4092,"Ð»Ð¸Ñĩ":4093,"Ġresponse":4094,"ĠcontinuaciÃ³n":4095,"ĠRecuerda":4096,"ä¾ĭ":4097,"Ġidioma":4098,"Ġaumentar":4099,"ygame":4100,"Ġluch":4101,"ĠÐł":4102,"Ġfabr":4103,"Ġnues":4104,"edo":4105,"ello":4106,"ability":4107,"ief":4108,"ational":4109,"Ġtras":4110,"ĠÐ±ÑĥÐ´":4111,"ificaciÃ³n":4112,"Ġcertain":4113,"Ġquestion":4114,"Ġimplement":4115,"Ġpatrones":4116,"Ġacceso":4117,"Ġpatterns":4118,"Yes":4119,"base":4120,"ek":4121,"ium":4122,"Ġdog":4123,"unk":4124,"isti":4125,"Ġhag":4126,"iden":4127,"ÃŃos":4128,"Ġella":4129,"Ð½Ñı":4130,"ĠCor":4131,"ÑģÑĤÑĢ":4132,"ĠHar":4133,"tures":4134,"Ġtele":4135,"ĠJuan":4136,"Ġsolici":4137,"Ġinternet":4138,"Ð½ÑĭÐ¼Ð¸":4139,"ficar":4140,"geno":4141,"estiÃ³n":4142,"Ġconflic":4143,"Ġcheck":4144,"Ġcontent":4145,"Press":4146,"ood":4147,"set":4148,"çŃ":4149,"ĠatenciÃ³n":4150,"Ġfamos":4151,"tax":4152,"Ġbes":4153,"Ġexamples":4154,"Ġestrate":4155,"ĠBy":4156,"Ġquer":4157,"ĠÑĩÑĤÐ¾Ð±Ñĭ":4158,"Ġideal":4159,"Ġfiloso":4160,"ĠposiciÃ³n":4161,"ĠdiseÃ±":4162,"Ġresponder":4163,"Ġunderstanding":4164,"Ġleyes":4165,"ĠecuaciÃ³n":4166,"Ġconnec":4167,"zu":4168,"å¾":4169,"eres":4170,"Ġsiendo":4171,"Ġdeta":4172,"uela":4173,"imens":4174,"Ġgl":4175,"ural":4176,"ches":4177,"Ð»Ð¾":4178,"etes":4179,"Ġdesta":4180,"tilla":4181,"Ġfrutas":4182,"Ġperspec":4183,"ĠEng":4184,"Ġpersonajes":4185,"Ã¡nica":4186,"ĠÑĪ":4187,"Ġejerci":4188,"ĠÑĥÑĩ":4189,"Ġterms":4190,"Ð¸Ð·Ð½":4191,"Ġpuntos":4192,"Ġllamado":4193,"Ġelegir":4194,"Ġfeatures":4195,"'ll":4196,"ĠØ§ÙĦ":4197,"Ġcity":4198,"ĠlÃ³g":4199,"inos":4200,"tead":4201,"ÑĢÐ°Ð·":4202,"ili":4203,"ĠPo":4204,"Ġ17":4205,"tivamente":4206,"plic":4207,"ĠserÃ¡":4208,"ÐºÑĤ":4209,"ĠÐ½Ð¾":4210,"ĠWhen":4211,"Ġabr":4212,"ĠIntern":4213,"Ð¾Ð»ÐµÐµ":4214,"Ġzona":4215,"Ġmotiv":4216,"ÑĨÐ¸Ð¸":4217,"ĠÐ±Ð¾Ð»ÑĮ":4218,"ything":4219,"ĠReg":4220,"Ð°ÑĤÐµÐ»ÑĮ":4221,"ĠÑıÐ²Ð»Ñı":4222,"ĠtecnologÃŃas":4223,"Ġprofesional":4224,"Ġapplications":4225,"Ġpackage":4226,"ĠÐŃÑĤÐ¾":4227,"Ġsuperficie":4228,"dit":4229,"æĢ":4230,"Ġdet":4231,"Ġhid":4232,"Ġvoc":4233,"Ã¡genes":4234,"imos":4235,"Ġsets":4236,"dex":4237,"irm":4238,"ĠCada":4239,"ift":4240,"Ġextre":4241,"ĠimÃ¡genes":4242,"ĠÐ¸Ñħ":4243,"ĠGr":4244,"ock":4245,"Ġprev":4246,"Ġplus":4247,"ÐµÑĢÐ¶":4248,"ney":4249,"ÐµÐ»Ñı":4250,"Ġobjects":4251,"Ð¸Ð¼Ð¸":4252,"Ġmodelos":4253,"Ġconsiderar":4254,"Ġelemento":4255,"ĠÐµÐ³Ð¾":4256,"Ġspace":4257,"Ġmemoria":4258,"Ġallows":4259,"Ġofrece":4260,"Ġarquitec":4261,"Ġestrateg":4262,"iko":4263,"Ð¡":4264,"hed":4265,"head":4266,"Ġfres":4267,"Ġentonces":4268,"Ã³lo":4269,"ĠanÃ¡lisis":4270,"ima":4271,"ĠSp":4272,"queda":4273,"ours":4274,"Ġgracias":4275,"Ġintell":4276,"Ã¨s":4277,"print":4278,"lask":4279,"Ġprofund":4280,"Ġmaintain":4281,"Ġincor":4282,"ĠÐºÐ¾Ð¼Ð¿":4283,"jec":4284,"war":4285,"Ġiz":4286,"Ġsize":4287,"Ġmad":4288,"ĠÐķ":4289,"rop":4290,"Ġnunca":4291,"Ġtoo":4292,"Ġtot":4293,"Ġtools":4294,"amento":4295,"loc":4296,"umenta":4297,"laf":4298,"Ġrese":4299,"ĠÐ²Ð¾Ð·":4300,"ĠFr":4301,"ogra":4302,"Ð¼Ñĭ":4303,"ĠÐ¾Ð´":4304,"Ġplat":4305,"ĠOp":4306,"Ð°Ð½Ð¸Ðµ":4307,"Ġsigue":4308,"Ġmedic":4309,"ĠÑĩÐµÐ»Ð¾Ð²":4310,"ĠKe":4311,"Ġintegra":4312,"Ġindica":4313,"Ġhistor":4314,"Ġresultados":4315,"Ġlenguajes":4316,"Ġmusical":4317,"ĠdemÃ¡s":4318,"Ð¾Ð¿ÑĢÐ¾Ñģ":4319,"Ġdinero":4320,"ĠEurope":4321,"craft":4322,"Ġconocer":4323,"Ġstrateg":4324,"Ġwebsite":4325,"Ġfocus":4326,"ĠgustarÃŃa":4327,"13":4328,"ira":4329,"éľ":4330,"eren":4331,"Ġsie":4332,"orn":4333,"Ġeg":4334,"tation":4335,"Ġconclus":4336,"Ã¡les":4337,"imo":4338,"Ġsequ":4339,"ules":4340,"Ġthose":4341,"ÑĥÐ½":4342,"mate":4343,"ication":4344,"ĠDie":4345,"Ġastr":4346,"Ġmeta":4347,"ĠGer":4348,"ocar":4349,"Ġapoy":4350,"Ġfunctions":4351,"Ġoptions":4352,"minist":4353,"Ġlibro":4354,"Ġoutput":4355,"roso":4356,"Ġincluye":4357,"Ġseguro":4358,"ĠÑıÐ·Ñĭ":4359,"ĠAddition":4360,"Ġletra":4361,"Ð¸ÑĢÐ¾Ð²Ð°Ð½":4362,"Ġfamiliar":4363,"Ġtemperature":4364,"Ġminutes":4365,"Ġcircu":4366,"Ġperformance":4367,"Ġengine":4368,"Lo":4369,"the":4370,"tÃ©":4371,"å¹":4372,"æĿ":4373,"éĿ":4374,"Ġstill":4375,"Ġflex":4376,"Ġinno":4377,"ature":4378,"ÑĢÐµÐ¼":4379,"Ġrecu":4380,"Ã©l":4381,"Ġsuc":4382,"ĠIh":4383,"Ġforce":4384,"tives":4385,"Ġmeans":4386,"ÐºÐ¾Ð²":4387,"ÐµÐ½ÑĮ":4388,"esting":4389,"Ġdies":4390,"ĠÐ¿ÑĢÐ¾Ð³ÑĢ":4391,"Ġmoder":4392,"Ġmix":4393,"Ġautor":4394,"Ġneeds":4395,"Ġstory":4396,"ĠpelÃŃculas":4397,"åŃ¦":4398,"æĹ¶":4399,"ĠÐ»ÑİÐ´":4400,"Ġswitches":4401,"ĠWordPress":4402,"60":4403,"Al":4404,"As":4405,"PT":4406,"bi":4407,"body":4408,"pers":4409,"è¡":4410,"Ġtell":4411,"Ġplease":4412,"incl":4413,"Ġmust":4414,"cipl":4415,"tig":4416,"Ġothers":4417,"ecer":4418,"Ġals":4419,"ĠSan":4420,"Ð»Ð°ÑģÑĤ":4421,"ĠLet":4422,"ĠMic":4423,"ĠÐ¿Ð¾Ð½":4424,"ÑģÑĤÑĮ":4425,"ĠÐ¸Ð³ÑĢ":4426,"ucle":4427,"Ġarroz":4428,"torno":4429,"Ġdisco":4430,"Ġabierto":4431,"ĠðŁ¤":4432,"itat":4433,"alizaciÃ³n":4434,"ube":4435,"Ġmatter":4436,"Ġpress":4437,"Ġpresent":4438,"Ãºsqueda":4439,"Ð½Ð°Ñĩ":4440,"Ġintens":4441,"Ġvectores":4442,"ĠAlgunas":4443,"ĠÃ¡rea":4444,"64":4445,"])":4446,"cÃ³":4447,"dar":4448,"ÐĿ":4449,"åį":4450,"æĤ":4451,"Ġtimes":4452,"ĠÐĳ":4453,"ÑĭÑĤ":4454,"Ġimpos":4455,"ĠHa":4456,"Ġact":4457,"seg":4458,"Ġapar":4459,"ĠWith":4460,"Ġvariety":4461,"Ġ<<":4462,"Ġpasar":4463,"Ġpoli":4464,"ÐµÑģÑģ":4465,"Ġambient":4466,"Ġrequiere":4467,"Ġnumbers":4468,"Ġobjetivos":4469,"Ġnaturales":4470,"Ġestudiantes":4471,"Ġhoras":4472,"Ð°ÐµÑĤÑģÑı":4473,"ustral":4474,"Ġmultiple":4475,"Ġconsegu":4476,"ĠÐ¸Ð½ÑĤÐµÑĢ":4477,"Ġstandard":4478,"âĢįâĻ":4479,"Ġintellig":4480,"ĠAdditionally":4481,"::":4482,"ny":4483,"zos":4484,"Ä±":4485,"é¢":4486,"Ġdor":4487,"Ġdec":4488,"Ġefici":4489,"Ġocur":4490,"Ġalto":4491,"aban":4492,"Ð»ÐµÐ½":4493,"ema":4494,"ĠLuego":4495,"ĠDin":4496,"Ġasist":4497,"uda":4498,"ioni":4499,"Ġadj":4500,"Ġfunciona":4501,"Ġmodern":4502,"essage":4503,"Ġcost":4504,"Ġconocida":4505,"Ġservicios":4506,"Ġpreguntar":4507,"ĠÃºnica":4508,"Ġlibrary":4509,"based":4510,"Ġresults":4511,"ĠJohn":4512,"Ð°Ð½ÑĤÐ¾Ð²":4513,"éľĢ":4514,"25":4515,"pass":4516,"uen":4517,"Ġata":4518,"Ġuns":4519,"lement":4520,"Ġingenier":4521,"Ġnaci":4522,"Ġvas":4523,"Ġpartes":4524,"ĠSh":4525,"Ġsuficiente":4526,"Ð¸Ð¿":4527,"ĠHaz":4528,"Ġaccu":4529,"aps":4530,"andas":4531,"Ġminim":4532,"Ġprecios":4533,"Ġrecib":4534,"Ġnuestra":4535,"Ġllevar":4536,"Ġalcanzar":4537,"Ġpantalla":4538,"80":4539,"AI":4540,"oid":4541,"Ġtutor":4542,"Ġsqu":4543,"Ġsym":4544,"Ġded":4545,"Ġmec":4546,"Ġetique":4547,"ality":4548,"Ġbos":4549,"oup":4550,"Ġhaz":4551,"clar":4552,"ĠIng":4553,"culos":4554,"Ġhabilidad":4555,"Ð¾ÑĢÐ¸ÑĤ":4556,"Ġgoals":4557,"Ġrelations":4558,"Ġmencion":4559,"Ġbasa":4560,"Ġlleg":4561,"Ġeinen":4562,"Ġnueva":4563,"Ġdark":4564,"Ġafter":4565,"Ġcondiciones":4566,"Ġconditions":4567,"ĠWeb":4568,"Ġcumpl":4569,"Ð»ÑİÑĩ":4570,"dom":4571,"åĮ":4572,"atro":4573,"ÑĢÐ°":4574,"ÑĢÐ¸":4575,"ulos":4576,"ulas":4577,"umber":4578,"ivos":4579,"Ġusando":4580,"Ãºlti":4581,"Ġseres":4582,"Ġchange":4583,"Ġgrad":4584,"Ð°ÑĤÑĮÑģÑı":4585,"Ġstyle":4586,"Ġproblem":4587,"Ġconocimientos":4588,"enov":4589,"Ġprobable":4590,"Ġpassword":4591,"Ġlocation":4592,"ĠÐ¾ÑģÐ½Ð¾Ð²":4593,"Ġestrellas":4594,"Ġresearch":4595,"11":4596,"fl":4597,"ÐŁ":4598,"æŃ":4599,"ĠmÃ¡g":4600,"omas":4601,"Ġban":4602,"Ġhy":4603,"Ġnom":4604,"Ġgente":4605,"Ð»Ð³":4606,"ĠCO":4607,"ÑĥÑģ":4608,"ĠDoc":4609,"Ġestad":4610,"place":4611,"Ġrend":4612,"Ġpron":4613,"Ð²Ð°Ð½ÑĤÐ¾Ð²":4614,"fort":4615,"Ġincluso":4616,"Ġgovern":4617,"Ġregul":4618,"Ã¤n":4619,"Ġerr":4620,"ustom":4621,"Ġcamino":4622,"Ġtoma":4623,"Ġconsidered":4624,"ĠcomunicaciÃ³n":4625,"Ġhope":4626,"ĠExcel":4627,"Ġpopulares":4628,"Ġcomprar":4629,"CuÃ¡l":4630,"Ġoliva":4631,"Ġconsidera":4632,"ĠfilosofÃŃa":4633,",\"":4634,"['":4635,"ping":4636,"Ġdura":4637,"ony":4638,"ĠmÃºlti":4639,"Ġedad":4640,"adir":4641,"Ġnie":4642,"Ġwol":4643,"iles":4644,"ĠSystem":4645,"ĠÐ²Ð¾Ð¿ÑĢÐ¾Ñģ":4646,"ĠHer":4647,"alls":4648,"undial":4649,"pose":4650,"Ġsimul":4651,"Ġdiferente":4652,"uye":4653,"bots":4654,"Ġingredientes":4655,"Ġestudiar":4656,"Ġexpress":4657,"ĠFinalmente":4658,"Ġsegundo":4659,"ĠcuÃ¡ntica":4660,"Ġcarrera":4661,"Ġchallen":4662,"To":4663,"gi":4664,"https":4665,"mis":4666,"tado":4667,"ä¿":4668,"ĠsÃ©":4669,"Ġsatis":4670,"ane":4671,"ÐµÑħ":4672,"ĠbÃºsqueda":4673,"Ġnet":4674,"entina":4675,"Ġcontr":4676,"Ġconcre":4677,"Ġwid":4678,"Ã©ro":4679,"ĠSte":4680,"ĠPe":4681,"etro":4682,"umb":4683,"ÑıÐ·":4684,"ĠÐ¿Ð¾Ñģ":4685,"Ġleer":4686,"Ġwithin":4687,"Ġejec":4688,"Ġsalsa":4689,"ä¸Ń":4690,"Ġgraph":4691,"Ġinvers":4692,"Ġhacerlo":4693,"Ġmiem":4694,"Ġhistory":4695,"Ð¾ÑģÑĤÐ¾":4696,"**:":4697,"Ã§Ã£o":4698,"Ġstore":4699,"Ġmanten":4700,"ĠsituaciÃ³n":4701,"Ġviaje":4702,"Ġmental":4703,"Ġprovided":4704,"Ġbiblioteca":4705,"Ġcomputer":4706,"Ġtechniques":4707,"ĠÐ¿ÑĢÐ¾Ð³ÑĢÐ°Ð¼":4708,".,":4709,"OR":4710,"Ġdice":4711,"Ġdivid":4712,"ares":4713,"Ġfecha":4714,"Ġenfo":4715,"ĠSim":4716,"ÑĥÐ¿":4717,"Ġdestin":4718,"ĠBut":4719,"Ġacco":4720,"ĠUtil":4721,"Ġrespuestas":4722,"Ġvalid":4723,"echan":4724,"Ġmenudo":4725,"Ð¸ÑĤÑĮÑģÑı":4726,"Ġposition":4727,"ĠÐ¼Ð¾Ð¶Ð½Ð¾":4728,"ĠÑĤÐ°ÐºÐ¶Ðµ":4729,"Ġentrenamiento":4730,"ĠÃ¡reas":4731,"Ġabsor":4732,"Ġgravita":4733,"Ġcomportamiento":4734,"SÃŃ":4735,"rite":4736,"Ø±":4737,"ÙĪ":4738,"eraciÃ³n":4739,"ala":4740,"ilt":4741,"ĠSon":4742,"ĠLat":4743,"ients":4744,"Ġries":4745,"Ġcompe":4746,"Ġfrien":4747,"Ġmano":4748,"Ġcaliente":4749,"ysis":4750,"Ġincluir":4751,"Ġmodo":4752,"Ġshort":4753,"Ġbasic":4754,"Ġdirector":4755,"Ġnuevos":4756,"ĠArg":4757,"ĠComo":4758,"Ġoperating":4759,"Ġlugares":4760,"ledge":4761,"Ġefectiva":4762,"Ġedif":4763,"Ġstep":4764,"Ġaplicar":4765,"Ġresistencia":4766,"Ġsosten":4767,"rosoft":4768,"].":4769,"aÃ±":4770,"ns":4771,"not":4772,"ä¼":4773,"éĩ":4774,"Ġsent":4775,"Ġstre":4776,"Ġenter":4777,"Ġcontribu":4778,"olor":4779,"ibt":4780,"antum":4781,"Ġrenov":4782,"Ġnext":4783,"ĠUs":4784,"Ð¼Ð¾Ð¶":4785,"Ġabove":4786,"ĠÐ¿ÑĢÐ°Ð²":4787,"ĠVal":4788,"Ġcard":4789,"Ġcorrespon":4790,"Ġhumana":4791,"Ġrecomiendo":4792,"Ġlimit":4793,"ĠmayorÃŃa":4794,"Ġdeterminar":4795,"ĠNew":4796,"Ġanaly":4797,"Ġtendr":4798,"Ġspeed":4799,"å¥½":4800,"Ġderechos":4801,"lin":4802,"enen":4803,"Ġsil":4804,"Ġeficiente":4805,"Ġhog":4806,"Ġconec":4807,"Ġwar":4808,"Ġgases":4809,"Ġredes":4810,"Ã©f":4811,"Ġoffer":4812,"ĠSet":4813,"ĠPrac":4814,"ĠTrans":4815,"main":4816,"ĠDar":4817,"Ġimplica":4818,"Ġuses":4819,"Ġmeet":4820,"ĠÐ²Ð°ÑĪ":4821,"Ġprue":4822,"Ġconsist":4823,"ips":4824,"Ġhech":4825,"Ġ40":4826,"Ġrelaciones":4827,"azÃ³n":4828,"pha":4829,"Ġlik":4830,"Ġpermiten":4831,"Ġrequest":4832,"Ġvisual":4833,"gether":4834,"Ġcontrolar":4835,"ÃŃnas":4836,"itorio":4837,"Ġstrong":4838,"ĠespecÃŃficas":4839,"Ġtypically":4840,"Ð¸ÑģÑĤÐµÐ¼":4841,"Ġdescribe":4842,"Ġaproximadamente":4843,"æķ°":4844,"Ġpotential":4845,"include":4846,"æĤ¨":4847,"Ġrelationship":4848,"40":4849,"RE":4850,"hal":4851,"ying":4852,"zione":4853,"ency":4854,"Ġdf":4855,"Ġdemas":4856,"Ġmaj":4857,"Ġfas":4858,"tag":4859,"Ġhom":4860,"idd":4861,"Ġtogether":4862,"ÑıÑĤÑĮ":4863,"Ġdels":4864,"ĠMy":4865,"Ġlow":4866,"Ġport":4867,"Ġcuales":4868,"ĠÑģÐº":4869,"aja":4870,"Ġkon":4871,"Ġejecu":4872,"Ġatm":4873,"ÐµÑģÑĮ":4874,"ĠcrÃŃ":4875,"example":4876,"Ġpeso":4877,"ĠCrea":4878,"Ġmillones":4879,"ĠWorld":4880,"Ġalimentos":4881,"cord":4882,"gro":4883,"mina":4884,"ria":4885,"sec":4886,"yo":4887,"ÐĴ":4888,"æĬ":4889,"Ġ;":4890,"ĠcÃ¡l":4891,"Ġsuel":4892,"onos":4893,"hema":4894,"atch":4895,"Ġsein":4896,"top":4897,"ĠCr":4898,"ĠCena":4899,"ĠGit":4900,"Ġobra":4901,"aves":4902,"ä¸º":4903,"ÑģÑĤÐ²ÐµÐ½":4904,"Ġcause":4905,"ĠlÃŃqu":4906,"äºĨ":4907,"ĠproteÃŃnas":4908,"Ġplayers":4909,"Ġconsejos":4910,"ength":4911,"Ġreceta":4912,"ĠatmÃ³s":4913,"30":4914,"para":4915,"Âł":4916,"å¦":4917,"ests":4918,"Ġado":4919,"Ġlink":4920,"cis":4921,"icl":4922,"Ġbuy":4923,"Ġgre":4924,"Ġrem":4925,"Ġorient":4926,"ieres":4927,"Ġbeb":4928,"Ġsound":4929,"ĠRem":4930,"Ġmuerte":4931,"ĠInte":4932,"ĠsiÄĻ":4933,"illas":4934,"Ġpep":4935,"lect":4936,"ĠÐ°Ð½":4937,"Ð¸Ð·Ð¼":4938,"uestos":4939,"ĠbÃ¡sica":4940,"works":4941,"Ġtraining":4942,"ĠEuropa":4943,"ĠgÃ©nero":4944,"ĠHarry":4945,"Ġinnov":4946,"ĠatmÃ³sfera":4947,"AS":4948,"date":4949,"nel":4950,"vol":4951,"Ø¨":4952,"æī":4953,"Ġite":4954,"Ġcielo":4955,"Ġpygame":4956,"Ġside":4957,"Ġdej":4958,"ciente":4959,"adem":4960,"Ġfic":4961,"ÑĢÐ°Ð²":4962,"Ġsumm":4963,"iver":4964,"Ãºrate":4965,"Ġadi":4966,"ĠOf":4967,"metros":4968,"ĠÐ±Ð¾Ð»ÐµÐµ":4969,"Ġworking":4970,"ĠÐ·Ð°Ð´":4971,"Ġformula":4972,"Ġinstr":4973,"Ġstd":4974,"Ġprofess":4975,"book":4976,"Ġopera":4977,"Ġgroup":4978,"Ð°Ð¹ÑĤÐµ":4979,"Ġencuentran":4980,"Ġmoment":4981,"ĠPrim":4982,"ĠelectrÃ³nica":4983,"________":4984,"ĠeducaciÃ³n":4985,"Ġamount":4986,"PU":4987,"face":4988,"mod":4989,"pas":4990,"Ġfen":4991,"Ġfarm":4992,"Ġbass":4993,"Ġnad":4994,"Ġvie":4995,"imienta":4996,"Ã©e":4997,"ilities":4998,"ĠPue":4999}